unsigned char __ml_dataset_model_tflite[] = {
  0x1c, 0x00, 0x00, 0x00, 0x54, 0x46, 0x4c, 0x33, 0x00, 0x00, 0x12, 0x00,
  0x1c, 0x00, 0x04, 0x00, 0x08, 0x00, 0x0c, 0x00, 0x10, 0x00, 0x14, 0x00,
  0x00, 0x00, 0x18, 0x00, 0x12, 0x00, 0x00, 0x00, 0x03, 0x00, 0x00, 0x00,
  0xf0, 0x13, 0x00, 0x00, 0x24, 0x0c, 0x00, 0x00, 0x0c, 0x0c, 0x00, 0x00,
  0x3c, 0x00, 0x00, 0x00, 0x04, 0x00, 0x00, 0x00, 0x01, 0x00, 0x00, 0x00,
  0x0c, 0x00, 0x00, 0x00, 0x08, 0x00, 0x0c, 0x00, 0x04, 0x00, 0x08, 0x00,
  0x08, 0x00, 0x00, 0x00, 0x08, 0x00, 0x00, 0x00, 0x0c, 0x00, 0x00, 0x00,
  0x13, 0x00, 0x00, 0x00, 0x6d, 0x69, 0x6e, 0x5f, 0x72, 0x75, 0x6e, 0x74,
  0x69, 0x6d, 0x65, 0x5f, 0x76, 0x65, 0x72, 0x73, 0x69, 0x6f, 0x6e, 0x00,
  0x0d, 0x00, 0x00, 0x00, 0xbc, 0x0b, 0x00, 0x00, 0xa8, 0x0b, 0x00, 0x00,
  0x8c, 0x0b, 0x00, 0x00, 0x68, 0x0b, 0x00, 0x00, 0xd4, 0x07, 0x00, 0x00,
  0xb0, 0x00, 0x00, 0x00, 0x8c, 0x00, 0x00, 0x00, 0x80, 0x00, 0x00, 0x00,
  0x6c, 0x00, 0x00, 0x00, 0x58, 0x00, 0x00, 0x00, 0x44, 0x00, 0x00, 0x00,
  0x30, 0x00, 0x00, 0x00, 0x04, 0x00, 0x00, 0x00, 0xea, 0xf3, 0xff, 0xff,
  0x04, 0x00, 0x00, 0x00, 0x10, 0x00, 0x00, 0x00, 0x31, 0x2e, 0x35, 0x2e,
  0x30, 0x00, 0x00, 0x00, 0x00, 0x00, 0x00, 0x00, 0x00, 0x00, 0x00, 0x00,
  0x00, 0x00, 0x00, 0x00, 0x00, 0x00, 0x00, 0x00, 0x00, 0x00, 0x00, 0x00,
  0xdc, 0xec, 0xff, 0xff, 0x00, 0x00, 0x00, 0x00, 0x00, 0x00, 0x00, 0x00,
  0x00, 0x00, 0x00, 0x00, 0xec, 0xec, 0xff, 0xff, 0x00, 0x00, 0x00, 0x00,
  0x00, 0x00, 0x00, 0x00, 0x00, 0x00, 0x00, 0x00, 0xfc, 0xec, 0xff, 0xff,
  0x00, 0x00, 0x00, 0x00, 0x00, 0x00, 0x00, 0x00, 0x00, 0x00, 0x00, 0x00,
  0x0c, 0xed, 0xff, 0xff, 0x00, 0x00, 0x00, 0x00, 0x00, 0x00, 0x00, 0x00,
  0x00, 0x00, 0x00, 0x00, 0x1c, 0xed, 0xff, 0xff, 0x00, 0x00, 0x00, 0x00,
  0x5a, 0xf4, 0xff, 0xff, 0x04, 0x00, 0x00, 0x00, 0x0c, 0x00, 0x00, 0x00,
  0x73, 0x0d, 0x7e, 0xbd, 0xf4, 0x99, 0x8e, 0xbc, 0xf0, 0xb6, 0xed, 0xbd,
  0x00, 0x00, 0x00, 0x00, 0x00, 0x00, 0x00, 0x00, 0x7a, 0xf4, 0xff, 0xff,
  0x04, 0x00, 0x00, 0x00, 0x08, 0x07, 0x00, 0x00, 0x64, 0x33, 0x31, 0x3f,
  0x7e, 0xce, 0x28, 0xbe, 0x32, 0x97, 0x4e, 0xbe, 0x25, 0xa3, 0xc9, 0xbd,
  0x30, 0x38, 0xd4, 0xbe, 0x6f, 0xf9, 0x6e, 0x3e, 0x4f, 0x15, 0x1a, 0x3f,
  0x17, 0x2b, 0x00, 0x3f, 0x8c, 0xfc, 0xae, 0x3e, 0x6f, 0x5c, 0x9e, 0x3e,
  0x23, 0x2a, 0x3c, 0x3e, 0xf9, 0x71, 0x8c, 0xbe, 0xb9, 0x71, 0x1b, 0xbf,
  0xda, 0x5b, 0x89, 0x3d, 0x48, 0x97, 0x99, 0xbe, 0xb8, 0x44, 0x81, 0xbe,
  0x49, 0x2e, 0x13, 0x3f, 0x8c, 0x29, 0xc4, 0xbe, 0x0b, 0xe3, 0x35, 0xbf,
  0x0b, 0xdb, 0xfa, 0xbe, 0x2a, 0x9a, 0xcf, 0xbe, 0x66, 0x61, 0x3a, 0xbd,
  0x70, 0x04, 0xdc, 0xbe, 0xf5, 0x0d, 0x94, 0x3d, 0x9c, 0x71, 0xee, 0x3c,
  0x9c, 0xb2, 0x4f, 0x3d, 0xa1, 0x66, 0x08, 0xbf, 0x63, 0x39, 0xc8, 0x3e,
  0x7e, 0xd1, 0xc4, 0xbe, 0x21, 0x10, 0x4f, 0x3f, 0xaf, 0xe0, 0x03, 0xbe,
  0x78, 0xcd, 0x9e, 0xbc, 0xdc, 0x37, 0x0d, 0xbf, 0x96, 0x90, 0x01, 0x3e,
  0x67, 0xcb, 0x9d, 0xbe, 0x4a, 0x50, 0x17, 0x3e, 0xac, 0x7e, 0x9f, 0xbe,
  0x90, 0x54, 0x53, 0x3d, 0xd6, 0x6b, 0xf7, 0x3e, 0x7f, 0x12, 0xe8, 0x3e,
  0x2b, 0x20, 0x99, 0x3e, 0x79, 0xc0, 0xdf, 0x3e, 0x60, 0xe0, 0x23, 0x3f,
  0x41, 0xdf, 0xc3, 0x3e, 0x5e, 0x88, 0xc8, 0x3e, 0x23, 0xc7, 0xe2, 0xbd,
  0x77, 0x4c, 0x32, 0x3e, 0x8e, 0x89, 0xf5, 0x3d, 0x10, 0x57, 0x9d, 0x3e,
  0x38, 0x7c, 0xc6, 0x3d, 0xc3, 0x4d, 0xa2, 0x3d, 0x57, 0x46, 0x5b, 0xbe,
  0x7b, 0x9c, 0xc7, 0xbd, 0xf4, 0x29, 0x11, 0x3d, 0x54, 0x95, 0xdd, 0xbe,
  0x21, 0x9e, 0x69, 0x3d, 0x97, 0xbb, 0x93, 0xbc, 0xcc, 0xce, 0x6d, 0x3e,
  0x5a, 0xa6, 0x94, 0x3e, 0x32, 0x5e, 0x58, 0xbe, 0x4a, 0x5b, 0x35, 0xbf,
  0xf9, 0x3e, 0x92, 0xbe, 0xa7, 0x6e, 0xeb, 0x3d, 0x71, 0x5c, 0x25, 0xbf,
  0x42, 0x54, 0x44, 0x3e, 0x88, 0xaf, 0x82, 0x3e, 0xef, 0x79, 0x90, 0xbe,
  0x21, 0x1a, 0x9f, 0x3c, 0x11, 0xd2, 0x25, 0x3e, 0xbe, 0x79, 0x02, 0x3f,
  0x41, 0x0b, 0x57, 0x3e, 0x1f, 0x22, 0x20, 0xbe, 0x82, 0xc9, 0xa3, 0xbe,
  0x8f, 0xef, 0x8d, 0xbe, 0x34, 0xae, 0xfb, 0x3c, 0xc1, 0xf3, 0x01, 0x3e,
  0xfc, 0x32, 0xc3, 0xbe, 0x93, 0x05, 0x3c, 0x3e, 0x52, 0x01, 0x58, 0xbe,
  0xcc, 0x1d, 0x3f, 0x3f, 0x1b, 0x94, 0x87, 0xbe, 0xba, 0x51, 0x4f, 0x3f,
  0xfd, 0x46, 0xb0, 0xbe, 0xf8, 0x6a, 0x28, 0x3f, 0xbb, 0x09, 0xbb, 0xbe,
  0x27, 0x57, 0xe8, 0x3e, 0xd2, 0xcb, 0xfb, 0x3e, 0xe1, 0xd4, 0x77, 0x3e,
  0x9f, 0xd0, 0xf7, 0x3e, 0x10, 0x63, 0x10, 0xbe, 0x8e, 0xb0, 0x99, 0x3e,
  0x05, 0xbd, 0x80, 0xbd, 0x94, 0x06, 0xeb, 0xbb, 0x0a, 0xd8, 0x63, 0xbd,
  0x56, 0xc4, 0xd5, 0x3e, 0x76, 0x9e, 0x12, 0xbd, 0x92, 0xb0, 0x16, 0xbe,
  0x70, 0xd7, 0xc8, 0xbd, 0x5b, 0xf7, 0x8b, 0x3e, 0x24, 0xab, 0x7d, 0xbd,
  0x1c, 0xf5, 0xa7, 0xbd, 0x51, 0xe7, 0xa4, 0x3d, 0xfd, 0xc9, 0x47, 0xbf,
  0xb6, 0xef, 0x14, 0x3c, 0x96, 0x02, 0x01, 0xbf, 0x6a, 0x20, 0x06, 0x3e,
  0xdf, 0x77, 0x88, 0xbe, 0x05, 0xde, 0x69, 0xbe, 0xa0, 0x41, 0x5e, 0x3e,
  0xd5, 0xc8, 0xd5, 0xbd, 0x72, 0x28, 0x8a, 0x3e, 0xe8, 0x88, 0x91, 0xbe,
  0x83, 0x35, 0x84, 0xbd, 0xbc, 0xf5, 0xd3, 0xbc, 0x59, 0x2a, 0xae, 0xbe,
  0xd7, 0x17, 0xf2, 0xbe, 0xad, 0x6e, 0x32, 0x3e, 0x3e, 0x6e, 0xa3, 0x3e,
  0x7b, 0x23, 0x17, 0xbc, 0x46, 0xd4, 0xb4, 0xbc, 0x1b, 0x3c, 0x1a, 0xbe,
  0xa3, 0x60, 0xa0, 0x3e, 0xf4, 0xc2, 0xbc, 0xbd, 0xda, 0x0d, 0xe1, 0x3c,
  0x0f, 0x46, 0x05, 0xbe, 0xde, 0xc7, 0x85, 0x3c, 0x8b, 0x50, 0xc0, 0xbe,
  0x28, 0xe4, 0x0c, 0xbe, 0xb3, 0xa5, 0xfd, 0xbe, 0x7b, 0x81, 0x80, 0xbe,
  0x6e, 0x61, 0xcc, 0x3d, 0x25, 0x9f, 0x74, 0xbe, 0xb6, 0xd9, 0xf8, 0xbc,
  0x87, 0xa4, 0x2c, 0x3f, 0xa5, 0x9c, 0x02, 0xbf, 0xfd, 0x67, 0x4f, 0xbd,
  0x90, 0x2b, 0x32, 0xbf, 0xaa, 0x4f, 0x9e, 0x3e, 0x74, 0x63, 0x98, 0xbd,
  0xbd, 0x50, 0x28, 0xbe, 0xc5, 0x71, 0x38, 0x3e, 0x79, 0xcf, 0xaa, 0x3e,
  0xec, 0xee, 0x32, 0x3e, 0xde, 0xa1, 0x28, 0xbe, 0x1e, 0x5d, 0xd5, 0x3e,
  0x1d, 0xa6, 0x91, 0xbd, 0xf5, 0xc0, 0x17, 0xbe, 0x50, 0x36, 0xdb, 0xbd,
  0x9c, 0xce, 0x8d, 0x3e, 0x84, 0x6e, 0xd8, 0xbc, 0x15, 0xba, 0xd1, 0xbe,
  0x66, 0x12, 0x9e, 0xbd, 0x2b, 0x13, 0xde, 0xbe, 0x3b, 0xad, 0x5a, 0x3d,
  0x06, 0xd4, 0x7a, 0xbd, 0xcc, 0xd8, 0xa4, 0xbb, 0xcf, 0xca, 0x65, 0x3e,
  0xec, 0xaa, 0xec, 0x3d, 0x36, 0xa3, 0x97, 0xbe, 0xb6, 0xd5, 0xec, 0x3d,
  0xf9, 0xdd, 0x6c, 0xbe, 0x72, 0x66, 0xd7, 0x3e, 0xc2, 0xbd, 0xba, 0xbe,
  0x3f, 0x04, 0xb3, 0xbe, 0x73, 0x3a, 0x43, 0xbe, 0x0a, 0xfb, 0xc0, 0x3e,
  0x93, 0xa6, 0x42, 0xbe, 0xef, 0x3e, 0xa2, 0x3e, 0x11, 0xf9, 0x3d, 0x3f,
  0xb1, 0x4e, 0xc6, 0xbc, 0x44, 0x43, 0x4a, 0xbe, 0xf0, 0x1e, 0xca, 0xbe,
  0x80, 0x94, 0xfb, 0xbd, 0xf3, 0x0f, 0x8c, 0x3e, 0xcf, 0x22, 0x19, 0xbf,
  0xd5, 0x8d, 0xcd, 0xbe, 0xb3, 0x47, 0x1a, 0x3f, 0xd8, 0x32, 0xe8, 0x3c,
  0xa3, 0x7d, 0xd2, 0x3e, 0x13, 0x09, 0xa5, 0xbd, 0xd4, 0x13, 0xd2, 0x3e,
  0xe7, 0xb9, 0xdd, 0x3e, 0x6b, 0x88, 0x8f, 0x3e, 0xa0, 0x60, 0xa6, 0xbe,
  0x77, 0x48, 0x9a, 0xbe, 0xc6, 0xa5, 0x8e, 0xbd, 0xc5, 0xda, 0xc2, 0x3e,
  0x3e, 0x06, 0xd4, 0xbd, 0x9a, 0xba, 0xaa, 0x3e, 0x13, 0x49, 0x9c, 0xbd,
  0xf5, 0xa1, 0x4a, 0x3e, 0xa0, 0xbf, 0x3d, 0xbb, 0x23, 0xd7, 0x17, 0x3e,
  0x24, 0x87, 0x64, 0x3d, 0x48, 0x25, 0x75, 0x3e, 0x41, 0x28, 0xaf, 0x3d,
  0x5b, 0x8f, 0x70, 0xbe, 0x0f, 0x84, 0xad, 0xbd, 0x68, 0xdc, 0xf8, 0xbe,
  0xd5, 0x30, 0x44, 0x3b, 0xfa, 0x35, 0x8d, 0x3e, 0x74, 0x09, 0xbd, 0xbd,
  0xf2, 0x49, 0x76, 0x3e, 0xb2, 0x11, 0xea, 0xbe, 0x9b, 0x93, 0xea, 0x3c,
  0x20, 0x50, 0x64, 0xbd, 0xea, 0xdb, 0xa5, 0xbe, 0xe6, 0xff, 0xa1, 0xbe,
  0x48, 0xd9, 0xc9, 0x3d, 0x98, 0x2b, 0x80, 0x3e, 0x9a, 0x15, 0x55, 0xbd,
  0xcb, 0x25, 0x18, 0x3e, 0xdc, 0x3a, 0x0d, 0xbe, 0x10, 0x69, 0x74, 0x3d,
  0x1a, 0x97, 0x01, 0xbf, 0xab, 0xa4, 0x04, 0xbe, 0xef, 0x89, 0x67, 0xbe,
  0x60, 0x00, 0x61, 0xbd, 0xbe, 0xdc, 0xae, 0xbe, 0xd0, 0x3f, 0x9e, 0x3d,
  0x7f, 0xcf, 0xf8, 0xbe, 0xd7, 0x47, 0x03, 0xbd, 0x0c, 0x74, 0xd7, 0x3d,
  0x17, 0xbe, 0x30, 0x3e, 0x47, 0xbf, 0x41, 0xbf, 0xb5, 0x08, 0x3d, 0xbd,
  0x16, 0x7c, 0xdf, 0x3e, 0x3a, 0xbb, 0xe7, 0xbd, 0x68, 0xc3, 0x7e, 0x3e,
  0xf5, 0x41, 0x76, 0xbd, 0x4e, 0x1d, 0xa7, 0x3e, 0xb2, 0xf7, 0xad, 0xbe,
  0xc4, 0x2a, 0x23, 0x3f, 0xc2, 0x7a, 0xef, 0xbd, 0x71, 0x6f, 0xb6, 0x3e,
  0x37, 0x3a, 0x17, 0xbd, 0x25, 0x3d, 0xbb, 0x3e, 0xfb, 0x16, 0x2e, 0xbe,
  0xf9, 0xe8, 0xb4, 0x3e, 0xf4, 0x06, 0xfe, 0xbd, 0x7e, 0xc8, 0x75, 0x3d,
  0x1c, 0xf3, 0xa3, 0xbd, 0x58, 0xb4, 0x57, 0x3e, 0x11, 0xe4, 0x4c, 0xbe,
  0xa5, 0x28, 0xc4, 0xbc, 0x26, 0xb6, 0x49, 0xbc, 0xf0, 0x8d, 0xd5, 0xbd,
  0x23, 0xb6, 0x90, 0xbd, 0x2f, 0xe2, 0x82, 0x3e, 0x6b, 0x05, 0xa7, 0xbd,
  0xae, 0x94, 0x73, 0xbe, 0x5f, 0x69, 0x65, 0x3a, 0x39, 0xfe, 0xa6, 0x3d,
  0xfe, 0x27, 0x7d, 0xbe, 0xe9, 0xe7, 0x26, 0x3e, 0x7d, 0x74, 0x65, 0xbe,
  0x2e, 0x99, 0x35, 0xbf, 0x6b, 0x58, 0x98, 0x3d, 0x05, 0x33, 0xe9, 0xbe,
  0xa5, 0xd8, 0x6d, 0xbd, 0x1a, 0xb1, 0x51, 0xbe, 0x09, 0x4f, 0x47, 0x3c,
  0xfa, 0x7a, 0x44, 0x3e, 0x26, 0x7b, 0xf1, 0xbd, 0xd8, 0xcd, 0xf3, 0x3e,
  0x7e, 0x7b, 0x14, 0xbe, 0xea, 0xe3, 0xe3, 0x3b, 0xad, 0x17, 0x5c, 0x3e,
  0xa3, 0xab, 0xb0, 0x3d, 0xd8, 0xee, 0x59, 0x3b, 0x71, 0xea, 0x67, 0xbe,
  0x41, 0xe3, 0xc3, 0x3e, 0x89, 0xa7, 0x94, 0xbe, 0x63, 0x0a, 0x77, 0x3d,
  0x81, 0xb8, 0xb9, 0x3e, 0x0c, 0x71, 0xd4, 0x3e, 0x01, 0x42, 0xd1, 0xbe,
  0x62, 0x29, 0xbb, 0x3e, 0xed, 0x3e, 0x36, 0xbe, 0x9d, 0xb5, 0x11, 0x3e,
  0xbe, 0x29, 0xeb, 0x3e, 0xd2, 0xa5, 0x0b, 0xbf, 0x2e, 0xeb, 0xb3, 0x3e,
  0xb6, 0x70, 0xd9, 0x3e, 0xf2, 0x1c, 0xf2, 0xbe, 0x71, 0xbc, 0xee, 0x3c,
  0xad, 0x77, 0xa5, 0x3e, 0x39, 0x79, 0xef, 0xbd, 0x49, 0x34, 0x8f, 0xbd,
  0xa2, 0x30, 0x67, 0x3d, 0x2a, 0x12, 0x16, 0x3e, 0x4e, 0x53, 0xf4, 0xbd,
  0xde, 0x3e, 0x9d, 0x3e, 0x3b, 0x51, 0xba, 0xbd, 0xbd, 0x51, 0x9f, 0xbc,
  0x78, 0x47, 0xf6, 0xbd, 0xe5, 0x23, 0x0d, 0x3e, 0x40, 0x2a, 0xf6, 0xbc,
  0xd8, 0xa6, 0xd0, 0x3e, 0x88, 0x70, 0x72, 0xbd, 0x71, 0x31, 0x3a, 0xbe,
  0xd5, 0x91, 0x43, 0x3e, 0x21, 0x61, 0xd6, 0x3c, 0xb3, 0x15, 0xe5, 0x3d,
  0x3e, 0x11, 0x22, 0x3e, 0x43, 0x4f, 0x99, 0xbe, 0xcb, 0xba, 0x02, 0xbf,
  0x8a, 0xe6, 0x72, 0xbe, 0xb7, 0x66, 0x84, 0xbe, 0x8c, 0xc3, 0x7b, 0xbe,
  0x71, 0xba, 0xd9, 0xbd, 0x3a, 0x2e, 0xc5, 0xbd, 0x8b, 0x81, 0xd6, 0xbe,
  0x8d, 0x7b, 0xbe, 0xbe, 0x45, 0xec, 0xd5, 0xbe, 0x7d, 0x3b, 0x79, 0x3e,
  0x1a, 0x64, 0xdf, 0x3e, 0x05, 0xc7, 0xa3, 0x3c, 0x7c, 0xb0, 0x59, 0x3d,
  0x1c, 0x65, 0x15, 0xbd, 0x0b, 0x6d, 0xa0, 0x3e, 0x7f, 0xa3, 0x26, 0xbd,
  0xcf, 0xd3, 0xdc, 0xbc, 0x91, 0x91, 0xae, 0xbd, 0x5d, 0xae, 0x99, 0x3d,
  0xa4, 0xc3, 0x2d, 0x3e, 0x06, 0x18, 0xc1, 0x3e, 0x67, 0x53, 0xca, 0xbc,
  0xdc, 0xae, 0x5f, 0xbe, 0x40, 0x03, 0x05, 0xbf, 0x18, 0xe7, 0xcc, 0x3e,
  0xdc, 0x51, 0xf7, 0xbd, 0x63, 0x58, 0x0d, 0x3b, 0x45, 0xd5, 0x95, 0xbe,
  0xd6, 0x5f, 0xed, 0x3e, 0xa4, 0x97, 0xe3, 0x3e, 0xaf, 0xb1, 0x2e, 0xbe,
  0x25, 0x6f, 0x59, 0x3d, 0x14, 0x5f, 0xcb, 0x3e, 0x15, 0x55, 0x95, 0xbd,
  0x58, 0xed, 0x01, 0x3d, 0xe4, 0x29, 0xf4, 0xbc, 0x7d, 0xe2, 0x5c, 0x3e,
  0x0a, 0x9d, 0x68, 0xbd, 0xd9, 0xad, 0x81, 0xbe, 0x39, 0xea, 0x5f, 0x3e,
  0xeb, 0x38, 0xf8, 0x3c, 0xca, 0x37, 0xc6, 0xbe, 0x45, 0xdb, 0x31, 0xbe,
  0x0a, 0xd6, 0x92, 0x3d, 0x22, 0xfc, 0x80, 0xbd, 0x6c, 0x1b, 0x1b, 0x3e,
  0x6f, 0x3c, 0xfc, 0x3d, 0x65, 0x60, 0xa8, 0xbd, 0x8f, 0x72, 0x24, 0xbd,
  0xf9, 0x0d, 0x07, 0xbe, 0x8c, 0x43, 0x60, 0x3e, 0x59, 0xb2, 0x8a, 0x3c,
  0xbd, 0x6b, 0xb2, 0x3d, 0xb2, 0x02, 0xa1, 0xbe, 0x8e, 0x39, 0x11, 0xbf,
  0x0d, 0xb7, 0xf7, 0xbd, 0xae, 0x70, 0xf5, 0x3d, 0x6b, 0x37, 0xca, 0x3d,
  0xda, 0xbe, 0xc3, 0x3e, 0x49, 0xe5, 0xc8, 0xbc, 0xc1, 0x30, 0xa6, 0x3e,
  0x5c, 0x1e, 0xf5, 0xbd, 0xe5, 0x6e, 0x94, 0xbd, 0xee, 0xbd, 0xe8, 0xbd,
  0xb2, 0xf7, 0xc3, 0x3d, 0x4f, 0x40, 0x93, 0x3e, 0x23, 0x28, 0xc9, 0x3d,
  0xdd, 0xa8, 0x1b, 0x3f, 0x16, 0x3b, 0x11, 0x3f, 0x2c, 0x35, 0x31, 0xbc,
  0x46, 0x8e, 0xce, 0x3d, 0x51, 0x57, 0x8f, 0x3e, 0xa6, 0x98, 0x01, 0x3e,
  0x35, 0x02, 0x57, 0xbe, 0x11, 0x4f, 0xb3, 0xbe, 0x4a, 0xba, 0x70, 0xbe,
  0x3c, 0x1f, 0x12, 0xbf, 0xb3, 0xc3, 0xa7, 0x3d, 0x4d, 0x09, 0xf3, 0xbc,
  0x2c, 0x5a, 0x58, 0x3f, 0xd7, 0xc2, 0x00, 0x3e, 0x80, 0x24, 0x0b, 0xbd,
  0xf7, 0x02, 0xef, 0x3c, 0xa4, 0x47, 0x48, 0xbd, 0x8b, 0x38, 0xee, 0xbd,
  0xcd, 0x65, 0x0e, 0x3c, 0x8d, 0xfb, 0x66, 0xbe, 0x45, 0x70, 0x15, 0x3d,
  0xd6, 0xba, 0xbf, 0xbe, 0x02, 0xea, 0xa8, 0x3d, 0xb4, 0x77, 0xed, 0x3d,
  0x54, 0xcc, 0x6b, 0x3d, 0xcc, 0xe3, 0x9a, 0xbe, 0xdf, 0x4b, 0xc7, 0x3b,
  0x91, 0x21, 0xa5, 0xbe, 0x6a, 0x31, 0x40, 0x3e, 0xc5, 0x13, 0x28, 0xbe,
  0xda, 0x3e, 0xbe, 0x3d, 0x4f, 0xa7, 0x90, 0x3e, 0xa7, 0x5b, 0x8f, 0xbc,
  0x39, 0x30, 0x1a, 0xbe, 0x0e, 0xf9, 0x84, 0xbd, 0xe7, 0x1d, 0xee, 0x3e,
  0x9d, 0xe3, 0x0f, 0x3e, 0x57, 0x21, 0x78, 0x3e, 0x85, 0x03, 0x65, 0xbc,
  0x7e, 0x6e, 0x40, 0xbd, 0xba, 0x78, 0x0d, 0xbe, 0xbc, 0xe6, 0x19, 0xbe,
  0x54, 0x48, 0x65, 0x3e, 0x4e, 0x35, 0xb1, 0xbd, 0x32, 0x7d, 0x48, 0xbd,
  0xd4, 0xb7, 0xf6, 0xbe, 0x47, 0x1c, 0x09, 0x3d, 0xa5, 0x76, 0x13, 0x3f,
  0xcd, 0x1b, 0x33, 0x3e, 0xd8, 0x0c, 0xe9, 0xbe, 0xe8, 0x61, 0x56, 0xbd,
  0x77, 0x13, 0xd7, 0xbe, 0x6c, 0xdb, 0xa4, 0x3e, 0x2a, 0xe7, 0x2e, 0x3e,
  0x1b, 0x7c, 0xea, 0xbe, 0xab, 0xb0, 0xbb, 0xbc, 0x35, 0xa8, 0x13, 0x3f,
  0xe9, 0x5f, 0x53, 0xbd, 0x48, 0x01, 0x27, 0x3e, 0x0c, 0xfa, 0x29, 0xbe,
  0x06, 0x4c, 0xa5, 0xbe, 0x42, 0x24, 0x1b, 0x3e, 0xa2, 0x55, 0xb1, 0x3e,
  0x0f, 0x5d, 0x27, 0x3f, 0x0e, 0x5e, 0xb7, 0xbd, 0xe1, 0xc4, 0x4d, 0x3e,
  0x9c, 0x73, 0x1c, 0x3d, 0x49, 0x0f, 0x0d, 0xbe, 0x30, 0xcd, 0xa9, 0x3d,
  0x3b, 0x4b, 0x45, 0xbe, 0xf4, 0x43, 0x87, 0xbd, 0x8e, 0x28, 0x0e, 0xbc,
  0xfa, 0xd3, 0xba, 0xbd, 0x08, 0x13, 0x99, 0x3c, 0x60, 0xdc, 0x19, 0x3d,
  0xe0, 0x35, 0x23, 0x3f, 0x16, 0xfc, 0xb0, 0xbd, 0x00, 0x00, 0x00, 0x00,
  0x00, 0x00, 0x00, 0x00, 0x00, 0x00, 0x00, 0x00, 0x9a, 0xfb, 0xff, 0xff,
  0x04, 0x00, 0x00, 0x00, 0x84, 0x03, 0x00, 0x00, 0xc2, 0xc1, 0xb8, 0xbc,
  0x8e, 0x9f, 0x32, 0xbf, 0x6f, 0x28, 0x35, 0x3d, 0xae, 0x54, 0x22, 0x3f,
  0xaa, 0xcc, 0x0b, 0xbf, 0xdc, 0xc1, 0xa4, 0x3e, 0x13, 0xaf, 0x28, 0x3f,
  0xaf, 0x92, 0x82, 0xbe, 0x15, 0xa1, 0x0f, 0xbd, 0x44, 0x25, 0x8e, 0xbe,
  0x2c, 0xf5, 0xeb, 0x3e, 0xff, 0x7e, 0xc5, 0xbe, 0xde, 0x44, 0xdd, 0x3e,
  0x2d, 0xb1, 0x0a, 0xbf, 0xf7, 0xba, 0x22, 0x3f, 0xe1, 0xd9, 0xb9, 0xbe,
  0x3a, 0x63, 0xdb, 0x3e, 0x63, 0x22, 0x0c, 0xbd, 0x36, 0xe8, 0x81, 0x3f,
  0xde, 0x94, 0x02, 0x3f, 0x5a, 0x51, 0x01, 0xbf, 0x31, 0x39, 0xb2, 0x3e,
  0x3b, 0x14, 0x3c, 0xbe, 0x85, 0x3a, 0x05, 0x3d, 0x4d, 0x7b, 0x0f, 0x3f,
  0x49, 0x84, 0xbd, 0xbe, 0x4f, 0x23, 0x05, 0x3f, 0x32, 0xb1, 0x31, 0xbe,
  0xe0, 0xa3, 0xe5, 0xbe, 0x28, 0x31, 0x94, 0xbd, 0x1b, 0x4b, 0xd1, 0xbe,
  0xbc, 0x0e, 0x88, 0x3d, 0xc3, 0xe7, 0xca, 0x3e, 0xd1, 0x9e, 0x6c, 0xbf,
  0x7b, 0x78, 0x63, 0x3f, 0xe2, 0xdc, 0x33, 0xbf, 0x23, 0x72, 0x0e, 0x3f,
  0xaf, 0xfc, 0x08, 0xbf, 0x1a, 0xf1, 0x29, 0x3e, 0xcd, 0x00, 0xa0, 0xbe,
  0xee, 0xe5, 0x78, 0xbe, 0x35, 0x29, 0xd3, 0xbc, 0x67, 0xf0, 0x1c, 0x3e,
  0x60, 0xb2, 0x95, 0xbe, 0x29, 0x09, 0x7a, 0xbe, 0x8c, 0x5d, 0x00, 0x3f,
  0x5e, 0xef, 0x96, 0xbe, 0x75, 0x25, 0x88, 0xbe, 0x53, 0xa9, 0x46, 0xbd,
  0xcc, 0xcb, 0xe3, 0xbe, 0x95, 0x30, 0xca, 0xbd, 0x0b, 0x15, 0x5f, 0x3e,
  0xa4, 0xf2, 0x4c, 0xbe, 0xcc, 0xf3, 0x58, 0xbe, 0x64, 0x30, 0x94, 0x3e,
  0xe3, 0x92, 0x84, 0x3a, 0xdb, 0x44, 0xde, 0x3c, 0x31, 0xa5, 0xf5, 0xbd,
  0xdc, 0x35, 0xa8, 0x3d, 0xa2, 0x8a, 0x95, 0xbe, 0x12, 0x99, 0x28, 0x3e,
  0xc1, 0x7f, 0x8e, 0x3d, 0x27, 0x43, 0x9e, 0xbe, 0x1e, 0x8c, 0x11, 0xbe,
  0x38, 0x35, 0xa3, 0x3c, 0x2b, 0xf7, 0x93, 0xbd, 0xb8, 0x31, 0x80, 0xbe,
  0x3a, 0x37, 0x97, 0x3d, 0x05, 0xf7, 0x0c, 0x3d, 0x2e, 0x20, 0x4c, 0xbf,
  0x9e, 0x5b, 0x6b, 0xbe, 0x1c, 0x25, 0xb8, 0xbe, 0x44, 0x4d, 0xb8, 0xbd,
  0x61, 0x5c, 0x8b, 0xbe, 0x04, 0x15, 0x6b, 0xbe, 0xa1, 0xf5, 0xcd, 0xbe,
  0x35, 0x26, 0x02, 0x3f, 0x0b, 0xd9, 0x08, 0x3e, 0x4a, 0x5b, 0xf2, 0xbd,
  0xb6, 0x4c, 0xe0, 0x3d, 0x95, 0x55, 0xb5, 0xbd, 0xe4, 0x40, 0x29, 0xbf,
  0xf7, 0xdd, 0xac, 0x3e, 0xae, 0xfe, 0x9a, 0xbe, 0x96, 0xf5, 0x93, 0xbe,
  0x71, 0x05, 0x9e, 0xbe, 0xd5, 0x35, 0xe1, 0x3e, 0xfa, 0xce, 0x13, 0x3e,
  0xf4, 0x95, 0xaa, 0x3d, 0xec, 0x71, 0x29, 0xbd, 0x02, 0x65, 0x0d, 0xbf,
  0x5b, 0x3d, 0xc2, 0xbe, 0x8a, 0xf7, 0xa1, 0x3e, 0x06, 0xdb, 0x20, 0x3c,
  0x30, 0x9b, 0x92, 0xbf, 0xac, 0xb4, 0x10, 0x3e, 0xf6, 0x23, 0x3d, 0x3f,
  0xdd, 0x0d, 0x06, 0x3f, 0x21, 0xb3, 0xe3, 0x3e, 0x22, 0x9a, 0xa9, 0xbe,
  0x78, 0xf6, 0x7c, 0x3c, 0x24, 0x66, 0x11, 0xbf, 0xac, 0x58, 0x89, 0xbe,
  0x6b, 0x49, 0x0e, 0xbe, 0x2a, 0x2b, 0xbd, 0xbe, 0xa4, 0x37, 0xcc, 0x3e,
  0xe5, 0xa3, 0x46, 0xbd, 0x0b, 0x1e, 0xba, 0xbe, 0x87, 0x9f, 0xed, 0x3e,
  0x8e, 0xc3, 0x25, 0xbd, 0x71, 0x88, 0x31, 0x3f, 0xec, 0xe6, 0x91, 0x3d,
  0x53, 0xe0, 0x95, 0x3d, 0xcc, 0x04, 0xa3, 0xbe, 0xa7, 0xe1, 0xc0, 0x3e,
  0xa8, 0x35, 0xd3, 0x3e, 0x11, 0x27, 0x94, 0xbd, 0xe3, 0xe5, 0xae, 0x3e,
  0x13, 0x1c, 0x12, 0xbe, 0xd1, 0x17, 0xa3, 0x3e, 0x2f, 0x3b, 0xa9, 0xbe,
  0xe2, 0x4d, 0xee, 0x3e, 0xcb, 0x1e, 0x7c, 0x3e, 0x4f, 0x80, 0xa0, 0x3e,
  0x33, 0xf5, 0xbd, 0x3d, 0xd4, 0xc9, 0x86, 0x3e, 0x95, 0xa7, 0x90, 0xbe,
  0xa0, 0xfd, 0xe6, 0x3e, 0xac, 0x65, 0x55, 0x3d, 0x6c, 0x56, 0x0e, 0xbf,
  0xc2, 0xcd, 0x8b, 0x3e, 0xd5, 0x62, 0x4b, 0x3e, 0x8b, 0x33, 0x1e, 0xbf,
  0x56, 0x76, 0x9f, 0xbe, 0x12, 0x33, 0xc7, 0x3d, 0x52, 0x1d, 0xba, 0xbe,
  0x27, 0x5e, 0xb6, 0x3e, 0xf8, 0xf9, 0xc9, 0x3e, 0x13, 0x6a, 0xbc, 0x3c,
  0xe1, 0x6b, 0x92, 0x3d, 0x77, 0x1b, 0xdc, 0x3e, 0xa3, 0xdd, 0xd1, 0x3d,
  0x0f, 0xca, 0xf6, 0x3d, 0x1e, 0x8f, 0x02, 0xbd, 0xab, 0x87, 0x53, 0x3d,
  0x5c, 0x50, 0x71, 0xbd, 0xe6, 0xaa, 0x06, 0x3f, 0x6f, 0x23, 0x94, 0x3d,
  0xf0, 0xf9, 0x16, 0x3e, 0x88, 0x10, 0x31, 0x3d, 0x89, 0x9c, 0xab, 0x3e,
  0x18, 0x73, 0x30, 0xbf, 0x47, 0x0e, 0x0c, 0x3c, 0xae, 0x7f, 0x2c, 0xbf,
  0xde, 0xf4, 0x1c, 0x3f, 0x7a, 0xbb, 0x31, 0x3e, 0x1c, 0x7d, 0xd4, 0x3e,
  0xe8, 0xd4, 0xac, 0x3e, 0xb7, 0x91, 0x27, 0xbd, 0xd8, 0x0e, 0x0d, 0x3f,
  0x25, 0x62, 0x79, 0x3d, 0x19, 0xe6, 0x81, 0xbd, 0x8c, 0xd6, 0x14, 0xbf,
  0x2b, 0xb2, 0xae, 0xbe, 0xc9, 0x63, 0x3e, 0xbf, 0x56, 0x7e, 0x0e, 0x3f,
  0xe8, 0x69, 0x60, 0x3d, 0x8b, 0x6f, 0xe8, 0xbe, 0x2c, 0x74, 0x14, 0xbf,
  0x3f, 0xa4, 0xba, 0x3e, 0x30, 0xaf, 0x1b, 0x3d, 0x1d, 0x70, 0x7a, 0xbf,
  0xab, 0x06, 0xd7, 0xbe, 0x08, 0xf2, 0x2f, 0xbf, 0xea, 0x4a, 0x51, 0xbe,
  0x58, 0xce, 0x28, 0x3f, 0x8d, 0x2a, 0x78, 0x3e, 0x44, 0x30, 0x0d, 0x3d,
  0x3f, 0xba, 0xc5, 0x3e, 0xe5, 0xb0, 0xfd, 0x3e, 0x93, 0xf9, 0xb6, 0x3e,
  0x92, 0x83, 0xfd, 0x3d, 0x9e, 0xb5, 0xa6, 0xbe, 0x06, 0xa5, 0x50, 0xbe,
  0x0e, 0x40, 0x33, 0xbe, 0x40, 0xb4, 0x29, 0xbf, 0x8f, 0x43, 0x51, 0xbf,
  0x58, 0xc1, 0xe0, 0xbe, 0xd5, 0x66, 0x92, 0x3e, 0xe0, 0xaa, 0x13, 0xbf,
  0xc6, 0x2d, 0xbc, 0xbd, 0xfc, 0x63, 0xa7, 0x3e, 0x78, 0x2a, 0x53, 0xbf,
  0xec, 0x40, 0xaa, 0xbe, 0x5e, 0x1a, 0xbe, 0xbe, 0xbe, 0xe9, 0x94, 0xbe,
  0x3c, 0x94, 0x47, 0xbe, 0x05, 0x52, 0xd6, 0x3d, 0x8d, 0xf2, 0xe5, 0xbe,
  0xee, 0xb7, 0xfa, 0x3a, 0x24, 0x8d, 0xc3, 0xbe, 0x6e, 0xca, 0x02, 0x3e,
  0xbf, 0xe8, 0xe6, 0xbe, 0xed, 0x18, 0x29, 0xbe, 0x24, 0xcf, 0xa0, 0x3e,
  0xa5, 0xb4, 0x0c, 0xbf, 0xc3, 0x83, 0x0b, 0xbe, 0x05, 0x30, 0x64, 0x3f,
  0xae, 0xa2, 0x62, 0x3c, 0x19, 0x43, 0xe3, 0xbe, 0xe5, 0x18, 0x47, 0xbe,
  0x89, 0x6c, 0xc8, 0xbc, 0xb5, 0x12, 0x6d, 0xbe, 0x54, 0x52, 0x71, 0x3d,
  0xc5, 0xd8, 0x68, 0x3b, 0x91, 0x63, 0x87, 0xbe, 0x93, 0x26, 0xde, 0xbd,
  0x41, 0x65, 0x31, 0xbe, 0x81, 0xb9, 0xda, 0xbe, 0x1d, 0x0d, 0x31, 0x3e,
  0xb8, 0x80, 0x47, 0xbd, 0xc7, 0x86, 0x32, 0xbf, 0x1c, 0x1e, 0xbc, 0xbe,
  0xb2, 0x08, 0x8e, 0xbe, 0x00, 0x90, 0xff, 0xbd, 0x2a, 0xff, 0xff, 0xff,
  0x04, 0x00, 0x00, 0x00, 0x0c, 0x00, 0x00, 0x00, 0x32, 0xba, 0x7e, 0xbd,
  0xa0, 0x3c, 0xfc, 0x3c, 0x60, 0x0e, 0xd0, 0x3c, 0x00, 0x00, 0x00, 0x00,
  0x00, 0x00, 0x00, 0x00, 0x4a, 0xff, 0xff, 0xff, 0x04, 0x00, 0x00, 0x00,
  0x08, 0x00, 0x00, 0x00, 0xff, 0xff, 0xff, 0xff, 0x4b, 0x00, 0x00, 0x00,
  0x00, 0x00, 0x00, 0x00, 0x2c, 0xf8, 0xff, 0xff, 0x00, 0x00, 0x00, 0x00,
  0x00, 0x00, 0x00, 0x00, 0x00, 0x00, 0x00, 0x00, 0x3c, 0xf8, 0xff, 0xff,
  0x00, 0x00, 0x00, 0x00, 0x00, 0x00, 0x00, 0x00, 0x0f, 0x00, 0x00, 0x00,
  0x4d, 0x4c, 0x49, 0x52, 0x20, 0x43, 0x6f, 0x6e, 0x76, 0x65, 0x72, 0x74,
  0x65, 0x64, 0x2e, 0x00, 0x01, 0x00, 0x00, 0x00, 0x14, 0x00, 0x00, 0x00,
  0x00, 0x00, 0x0e, 0x00, 0x18, 0x00, 0x04, 0x00, 0x08, 0x00, 0x0c, 0x00,
  0x10, 0x00, 0x14, 0x00, 0x0e, 0x00, 0x00, 0x00, 0xa8, 0x01, 0x00, 0x00,
  0x9c, 0x01, 0x00, 0x00, 0x90, 0x01, 0x00, 0x00, 0x14, 0x00, 0x00, 0x00,
  0x04, 0x00, 0x00, 0x00, 0x04, 0x00, 0x00, 0x00, 0x6d, 0x61, 0x69, 0x6e,
  0x00, 0x00, 0x00, 0x00, 0x05, 0x00, 0x00, 0x00, 0x30, 0x01, 0x00, 0x00,
  0xcc, 0x00, 0x00, 0x00, 0x94, 0x00, 0x00, 0x00, 0x50, 0x00, 0x00, 0x00,
  0x04, 0x00, 0x00, 0x00, 0x52, 0xff, 0xff, 0xff, 0x00, 0x00, 0x00, 0x09,
  0x04, 0x00, 0x00, 0x00, 0x24, 0x00, 0x00, 0x00, 0x18, 0x00, 0x00, 0x00,
  0x0c, 0x00, 0x00, 0x00, 0x00, 0x00, 0x06, 0x00, 0x08, 0x00, 0x04, 0x00,
  0x06, 0x00, 0x00, 0x00, 0x00, 0x00, 0x80, 0x3f, 0x01, 0x00, 0x00, 0x00,
  0x0a, 0x00, 0x00, 0x00, 0x01, 0x00, 0x00, 0x00, 0x09, 0x00, 0x00, 0x00,
  0x00, 0x00, 0x0e, 0x00, 0x18, 0x00, 0x08, 0x00, 0x0c, 0x00, 0x10, 0x00,
  0x07, 0x00, 0x14, 0x00, 0x0e, 0x00, 0x00, 0x00, 0x00, 0x00, 0x00, 0x08,
  0x03, 0x00, 0x00, 0x00, 0x18, 0x00, 0x00, 0x00, 0x0c, 0x00, 0x00, 0x00,
  0x04, 0x00, 0x00, 0x00, 0x10, 0xf9, 0xff, 0xff, 0x01, 0x00, 0x00, 0x00,
  0x09, 0x00, 0x00, 0x00, 0x03, 0x00, 0x00, 0x00, 0x08, 0x00, 0x00, 0x00,
  0x03, 0x00, 0x00, 0x00, 0x02, 0x00, 0x00, 0x00, 0x00, 0x00, 0x0a, 0x00,
  0x10, 0x00, 0x04, 0x00, 0x08, 0x00, 0x0c, 0x00, 0x0a, 0x00, 0x00, 0x00,
  0x02, 0x00, 0x00, 0x00, 0x10, 0x00, 0x00, 0x00, 0x04, 0x00, 0x00, 0x00,
  0x01, 0x00, 0x00, 0x00, 0x08, 0x00, 0x00, 0x00, 0x02, 0x00, 0x00, 0x00,
  0x07, 0x00, 0x00, 0x00, 0x01, 0x00, 0x00, 0x00, 0x00, 0x00, 0x0e, 0x00,
  0x1a, 0x00, 0x08, 0x00, 0x0c, 0x00, 0x10, 0x00, 0x07, 0x00, 0x14, 0x00,
  0x0e, 0x00, 0x00, 0x00, 0x00, 0x00, 0x00, 0x05, 0x01, 0x00, 0x00, 0x00,
  0x3c, 0x00, 0x00, 0x00, 0x30, 0x00, 0x00, 0x00, 0x14, 0x00, 0x00, 0x00,
  0x00, 0x00, 0x0e, 0x00, 0x18, 0x00, 0x07, 0x00, 0x08, 0x00, 0x0c, 0x00,
  0x10, 0x00, 0x14, 0x00, 0x0e, 0x00, 0x00, 0x00, 0x00, 0x00, 0x00, 0x01,
  0x01, 0x00, 0x00, 0x00, 0x0a, 0x00, 0x00, 0x00, 0x01, 0x00, 0x00, 0x00,
  0x0a, 0x00, 0x00, 0x00, 0x01, 0x00, 0x00, 0x00, 0x07, 0x00, 0x00, 0x00,
  0x01, 0x00, 0x00, 0x00, 0x06, 0x00, 0x00, 0x00, 0x00, 0x00, 0x0e, 0x00,
  0x16, 0x00, 0x00, 0x00, 0x08, 0x00, 0x0c, 0x00, 0x07, 0x00, 0x10, 0x00,
  0x0e, 0x00, 0x00, 0x00, 0x00, 0x00, 0x00, 0x01, 0x2c, 0x00, 0x00, 0x00,
  0x20, 0x00, 0x00, 0x00, 0x10, 0x00, 0x00, 0x00, 0x00, 0x00, 0x0a, 0x00,
  0x0c, 0x00, 0x00, 0x00, 0x04, 0x00, 0x08, 0x00, 0x0a, 0x00, 0x00, 0x00,
  0x01, 0x00, 0x00, 0x00, 0x01, 0x00, 0x00, 0x00, 0x01, 0x00, 0x00, 0x00,
  0x06, 0x00, 0x00, 0x00, 0x03, 0x00, 0x00, 0x00, 0x00, 0x00, 0x00, 0x00,
  0x04, 0x00, 0x00, 0x00, 0x05, 0x00, 0x00, 0x00, 0x01, 0x00, 0x00, 0x00,
  0x0a, 0x00, 0x00, 0x00, 0x01, 0x00, 0x00, 0x00, 0x00, 0x00, 0x00, 0x00,
  0x0b, 0x00, 0x00, 0x00, 0xc8, 0x05, 0x00, 0x00, 0x40, 0x05, 0x00, 0x00,
  0xc4, 0x04, 0x00, 0x00, 0x4c, 0x04, 0x00, 0x00, 0xcc, 0x03, 0x00, 0x00,
  0xcc, 0x02, 0x00, 0x00, 0xc0, 0x01, 0x00, 0x00, 0x30, 0x01, 0x00, 0x00,
  0xb4, 0x00, 0x00, 0x00, 0x3c, 0x00, 0x00, 0x00, 0x04, 0x00, 0x00, 0x00,
  0x72, 0xfa, 0xff, 0xff, 0x24, 0x00, 0x00, 0x00, 0x0b, 0x00, 0x00, 0x00,
  0x0c, 0x00, 0x00, 0x00, 0x04, 0x00, 0x00, 0x00, 0x64, 0xfa, 0xff, 0xff,
  0x08, 0x00, 0x00, 0x00, 0x49, 0x64, 0x65, 0x6e, 0x74, 0x69, 0x74, 0x79,
  0x00, 0x00, 0x00, 0x00, 0x02, 0x00, 0x00, 0x00, 0x01, 0x00, 0x00, 0x00,
  0x03, 0x00, 0x00, 0x00, 0xa6, 0xfa, 0xff, 0xff, 0x64, 0x00, 0x00, 0x00,
  0x0a, 0x00, 0x00, 0x00, 0x0c, 0x00, 0x00, 0x00, 0x04, 0x00, 0x00, 0x00,
  0x98, 0xfa, 0xff, 0xff, 0x4b, 0x00, 0x00, 0x00, 0x73, 0x65, 0x71, 0x75,
  0x65, 0x6e, 0x74, 0x69, 0x61, 0x6c, 0x2f, 0x6f, 0x75, 0x74, 0x70, 0x75,
  0x74, 0x2f, 0x42, 0x69, 0x61, 0x73, 0x41, 0x64, 0x64, 0x3b, 0x53, 0x74,
  0x61, 0x74, 0x65, 0x66, 0x75, 0x6c, 0x50, 0x61, 0x72, 0x74, 0x69, 0x74,
  0x69, 0x6f, 0x6e, 0x65, 0x64, 0x43, 0x61, 0x6c, 0x6c, 0x2f, 0x73, 0x65,
  0x71, 0x75, 0x65, 0x6e, 0x74, 0x69, 0x61, 0x6c, 0x2f, 0x6f, 0x75, 0x74,
  0x70, 0x75, 0x74, 0x2f, 0x42, 0x69, 0x61, 0x73, 0x41, 0x64, 0x64, 0x00,
  0x02, 0x00, 0x00, 0x00, 0x01, 0x00, 0x00, 0x00, 0x03, 0x00, 0x00, 0x00,
  0x1a, 0xfb, 0xff, 0xff, 0x68, 0x00, 0x00, 0x00, 0x09, 0x00, 0x00, 0x00,
  0x0c, 0x00, 0x00, 0x00, 0x04, 0x00, 0x00, 0x00, 0x0c, 0xfb, 0xff, 0xff,
  0x4d, 0x00, 0x00, 0x00, 0x73, 0x65, 0x71, 0x75, 0x65, 0x6e, 0x74, 0x69,
  0x61, 0x6c, 0x2f, 0x66, 0x6c, 0x61, 0x74, 0x74, 0x65, 0x6e, 0x2f, 0x52,
  0x65, 0x73, 0x68, 0x61, 0x70, 0x65, 0x3b, 0x53, 0x74, 0x61, 0x74, 0x65,
  0x66, 0x75, 0x6c, 0x50, 0x61, 0x72, 0x74, 0x69, 0x74, 0x69, 0x6f, 0x6e,
  0x65, 0x64, 0x43, 0x61, 0x6c, 0x6c, 0x2f, 0x73, 0x65, 0x71, 0x75, 0x65,
  0x6e, 0x74, 0x69, 0x61, 0x6c, 0x2f, 0x66, 0x6c, 0x61, 0x74, 0x74, 0x65,
  0x6e, 0x2f, 0x52, 0x65, 0x73, 0x68, 0x61, 0x70, 0x65, 0x00, 0x00, 0x00,
  0x02, 0x00, 0x00, 0x00, 0x01, 0x00, 0x00, 0x00, 0x4b, 0x00, 0x00, 0x00,
  0x92, 0xfb, 0xff, 0xff, 0x74, 0x00, 0x00, 0x00, 0x08, 0x00, 0x00, 0x00,
  0x0c, 0x00, 0x00, 0x00, 0x04, 0x00, 0x00, 0x00, 0x84, 0xfb, 0xff, 0xff,
  0x59, 0x00, 0x00, 0x00, 0x73, 0x65, 0x71, 0x75, 0x65, 0x6e, 0x74, 0x69,
  0x61, 0x6c, 0x2f, 0x6d, 0x61, 0x78, 0x5f, 0x70, 0x6f, 0x6f, 0x6c, 0x69,
  0x6e, 0x67, 0x32, 0x64, 0x2f, 0x4d, 0x61, 0x78, 0x50, 0x6f, 0x6f, 0x6c,
  0x3b, 0x53, 0x74, 0x61, 0x74, 0x65, 0x66, 0x75, 0x6c, 0x50, 0x61, 0x72,
  0x74, 0x69, 0x74, 0x69, 0x6f, 0x6e, 0x65, 0x64, 0x43, 0x61, 0x6c, 0x6c,
  0x2f, 0x73, 0x65, 0x71, 0x75, 0x65, 0x6e, 0x74, 0x69, 0x61, 0x6c, 0x2f,
  0x6d, 0x61, 0x78, 0x5f, 0x70, 0x6f, 0x6f, 0x6c, 0x69, 0x6e, 0x67, 0x32,
  0x64, 0x2f, 0x4d, 0x61, 0x78, 0x50, 0x6f, 0x6f, 0x6c, 0x00, 0x00, 0x00,
  0x04, 0x00, 0x00, 0x00, 0x01, 0x00, 0x00, 0x00, 0x01, 0x00, 0x00, 0x00,
  0x19, 0x00, 0x00, 0x00, 0x03, 0x00, 0x00, 0x00, 0x1e, 0xfc, 0xff, 0xff,
  0xf0, 0x00, 0x00, 0x00, 0x07, 0x00, 0x00, 0x00, 0x0c, 0x00, 0x00, 0x00,
  0x04, 0x00, 0x00, 0x00, 0x10, 0xfc, 0xff, 0xff, 0xd7, 0x00, 0x00, 0x00,
  0x73, 0x65, 0x71, 0x75, 0x65, 0x6e, 0x74, 0x69, 0x61, 0x6c, 0x2f, 0x63,
  0x6f, 0x6e, 0x76, 0x32, 0x64, 0x2f, 0x42, 0x69, 0x61, 0x73, 0x41, 0x64,
  0x64, 0x3b, 0x53, 0x74, 0x61, 0x74, 0x65, 0x66, 0x75, 0x6c, 0x50, 0x61,
  0x72, 0x74, 0x69, 0x74, 0x69, 0x6f, 0x6e, 0x65, 0x64, 0x43, 0x61, 0x6c,
  0x6c, 0x2f, 0x73, 0x65, 0x71, 0x75, 0x65, 0x6e, 0x74, 0x69, 0x61, 0x6c,
  0x2f, 0x63, 0x6f, 0x6e, 0x76, 0x32, 0x64, 0x2f, 0x42, 0x69, 0x61, 0x73,
  0x41, 0x64, 0x64, 0x3b, 0x73, 0x65, 0x71, 0x75, 0x65, 0x6e, 0x74, 0x69,
  0x61, 0x6c, 0x2f, 0x63, 0x6f, 0x6e, 0x76, 0x32, 0x64, 0x2f, 0x43, 0x6f,
  0x6e, 0x76, 0x32, 0x44, 0x3b, 0x53, 0x74, 0x61, 0x74, 0x65, 0x66, 0x75,
  0x6c, 0x50, 0x61, 0x72, 0x74, 0x69, 0x74, 0x69, 0x6f, 0x6e, 0x65, 0x64,
  0x43, 0x61, 0x6c, 0x6c, 0x2f, 0x73, 0x65, 0x71, 0x75, 0x65, 0x6e, 0x74,
  0x69, 0x61, 0x6c, 0x2f, 0x63, 0x6f, 0x6e, 0x76, 0x32, 0x64, 0x2f, 0x43,
  0x6f, 0x6e, 0x76, 0x32, 0x44, 0x3b, 0x53, 0x74, 0x61, 0x74, 0x65, 0x66,
  0x75, 0x6c, 0x50, 0x61, 0x72, 0x74, 0x69, 0x74, 0x69, 0x6f, 0x6e, 0x65,
  0x64, 0x43, 0x61, 0x6c, 0x6c, 0x2f, 0x73, 0x65, 0x71, 0x75, 0x65, 0x6e,
  0x74, 0x69, 0x61, 0x6c, 0x2f, 0x63, 0x6f, 0x6e, 0x76, 0x32, 0x64, 0x2f,
  0x42, 0x69, 0x61, 0x73, 0x41, 0x64, 0x64, 0x2f, 0x52, 0x65, 0x61, 0x64,
  0x56, 0x61, 0x72, 0x69, 0x61, 0x62, 0x6c, 0x65, 0x4f, 0x70, 0x31, 0x00,
  0x04, 0x00, 0x00, 0x00, 0x01, 0x00, 0x00, 0x00, 0x0a, 0x00, 0x00, 0x00,
  0x19, 0x00, 0x00, 0x00, 0x03, 0x00, 0x00, 0x00, 0x26, 0xfd, 0xff, 0xff,
  0xf0, 0x00, 0x00, 0x00, 0x06, 0x00, 0x00, 0x00, 0x0c, 0x00, 0x00, 0x00,
  0x04, 0x00, 0x00, 0x00, 0x18, 0xfd, 0xff, 0xff, 0xd6, 0x00, 0x00, 0x00,
  0x73, 0x65, 0x71, 0x75, 0x65, 0x6e, 0x74, 0x69, 0x61, 0x6c, 0x2f, 0x63,
  0x6f, 0x6e, 0x76, 0x32, 0x64, 0x2f, 0x42, 0x69, 0x61, 0x73, 0x41, 0x64,
  0x64, 0x3b, 0x53, 0x74, 0x61, 0x74, 0x65, 0x66, 0x75, 0x6c, 0x50, 0x61,
  0x72, 0x74, 0x69, 0x74, 0x69, 0x6f, 0x6e, 0x65, 0x64, 0x43, 0x61, 0x6c,
  0x6c, 0x2f, 0x73, 0x65, 0x71, 0x75, 0x65, 0x6e, 0x74, 0x69, 0x61, 0x6c,
  0x2f, 0x63, 0x6f, 0x6e, 0x76, 0x32, 0x64, 0x2f, 0x42, 0x69, 0x61, 0x73,
  0x41, 0x64, 0x64, 0x3b, 0x73, 0x65, 0x71, 0x75, 0x65, 0x6e, 0x74, 0x69,
  0x61, 0x6c, 0x2f, 0x63, 0x6f, 0x6e, 0x76, 0x32, 0x64, 0x2f, 0x43, 0x6f,
  0x6e, 0x76, 0x32, 0x44, 0x3b, 0x53, 0x74, 0x61, 0x74, 0x65, 0x66, 0x75,
  0x6c, 0x50, 0x61, 0x72, 0x74, 0x69, 0x74, 0x69, 0x6f, 0x6e, 0x65, 0x64,
  0x43, 0x61, 0x6c, 0x6c, 0x2f, 0x73, 0x65, 0x71, 0x75, 0x65, 0x6e, 0x74,
  0x69, 0x61, 0x6c, 0x2f, 0x63, 0x6f, 0x6e, 0x76, 0x32, 0x64, 0x2f, 0x43,
  0x6f, 0x6e, 0x76, 0x32, 0x44, 0x3b, 0x53, 0x74, 0x61, 0x74, 0x65, 0x66,
  0x75, 0x6c, 0x50, 0x61, 0x72, 0x74, 0x69, 0x74, 0x69, 0x6f, 0x6e, 0x65,
  0x64, 0x43, 0x61, 0x6c, 0x6c, 0x2f, 0x73, 0x65, 0x71, 0x75, 0x65, 0x6e,
  0x74, 0x69, 0x61, 0x6c, 0x2f, 0x63, 0x6f, 0x6e, 0x76, 0x32, 0x64, 0x2f,
  0x42, 0x69, 0x61, 0x73, 0x41, 0x64, 0x64, 0x2f, 0x52, 0x65, 0x61, 0x64,
  0x56, 0x61, 0x72, 0x69, 0x61, 0x62, 0x6c, 0x65, 0x4f, 0x70, 0x00, 0x00,
  0x01, 0x00, 0x00, 0x00, 0x03, 0x00, 0x00, 0x00, 0x22, 0xfe, 0xff, 0xff,
  0x64, 0x00, 0x00, 0x00, 0x05, 0x00, 0x00, 0x00, 0x0c, 0x00, 0x00, 0x00,
  0x04, 0x00, 0x00, 0x00, 0x14, 0xfe, 0xff, 0xff, 0x49, 0x00, 0x00, 0x00,
  0x73, 0x65, 0x71, 0x75, 0x65, 0x6e, 0x74, 0x69, 0x61, 0x6c, 0x2f, 0x63,
  0x6f, 0x6e, 0x76, 0x32, 0x64, 0x2f, 0x43, 0x6f, 0x6e, 0x76, 0x32, 0x44,
  0x3b, 0x53, 0x74, 0x61, 0x74, 0x65, 0x66, 0x75, 0x6c, 0x50, 0x61, 0x72,
  0x74, 0x69, 0x74, 0x69, 0x6f, 0x6e, 0x65, 0x64, 0x43, 0x61, 0x6c, 0x6c,
  0x2f, 0x73, 0x65, 0x71, 0x75, 0x65, 0x6e, 0x74, 0x69, 0x61, 0x6c, 0x2f,
  0x63, 0x6f, 0x6e, 0x76, 0x32, 0x64, 0x2f, 0x43, 0x6f, 0x6e, 0x76, 0x32,
  0x44, 0x00, 0x00, 0x00, 0x04, 0x00, 0x00, 0x00, 0x03, 0x00, 0x00, 0x00,
  0x03, 0x00, 0x00, 0x00, 0x19, 0x00, 0x00, 0x00, 0x02, 0x00, 0x00, 0x00,
  0x9e, 0xfe, 0xff, 0xff, 0x64, 0x00, 0x00, 0x00, 0x04, 0x00, 0x00, 0x00,
  0x0c, 0x00, 0x00, 0x00, 0x04, 0x00, 0x00, 0x00, 0x90, 0xfe, 0xff, 0xff,
  0x49, 0x00, 0x00, 0x00, 0x73, 0x65, 0x71, 0x75, 0x65, 0x6e, 0x74, 0x69,
  0x61, 0x6c, 0x2f, 0x6f, 0x75, 0x74, 0x70, 0x75, 0x74, 0x2f, 0x4d, 0x61,
  0x74, 0x4d, 0x75, 0x6c, 0x3b, 0x53, 0x74, 0x61, 0x74, 0x65, 0x66, 0x75,
  0x6c, 0x50, 0x61, 0x72, 0x74, 0x69, 0x74, 0x69, 0x6f, 0x6e, 0x65, 0x64,
  0x43, 0x61, 0x6c, 0x6c, 0x2f, 0x73, 0x65, 0x71, 0x75, 0x65, 0x6e, 0x74,
  0x69, 0x61, 0x6c, 0x2f, 0x6f, 0x75, 0x74, 0x70, 0x75, 0x74, 0x2f, 0x4d,
  0x61, 0x74, 0x4d, 0x75, 0x6c, 0x00, 0x00, 0x00, 0x02, 0x00, 0x00, 0x00,
  0x03, 0x00, 0x00, 0x00, 0x4b, 0x00, 0x00, 0x00, 0x12, 0xff, 0xff, 0xff,
  0x5c, 0x00, 0x00, 0x00, 0x03, 0x00, 0x00, 0x00, 0x0c, 0x00, 0x00, 0x00,
  0x04, 0x00, 0x00, 0x00, 0x04, 0xff, 0xff, 0xff, 0x40, 0x00, 0x00, 0x00,
  0x53, 0x74, 0x61, 0x74, 0x65, 0x66, 0x75, 0x6c, 0x50, 0x61, 0x72, 0x74,
  0x69, 0x74, 0x69, 0x6f, 0x6e, 0x65, 0x64, 0x43, 0x61, 0x6c, 0x6c, 0x2f,
  0x73, 0x65, 0x71, 0x75, 0x65, 0x6e, 0x74, 0x69, 0x61, 0x6c, 0x2f, 0x6f,
  0x75, 0x74, 0x70, 0x75, 0x74, 0x2f, 0x42, 0x69, 0x61, 0x73, 0x41, 0x64,
  0x64, 0x2f, 0x52, 0x65, 0x61, 0x64, 0x56, 0x61, 0x72, 0x69, 0x61, 0x62,
  0x6c, 0x65, 0x4f, 0x70, 0x00, 0x00, 0x00, 0x00, 0x01, 0x00, 0x00, 0x00,
  0x03, 0x00, 0x00, 0x00, 0x00, 0x00, 0x0e, 0x00, 0x18, 0x00, 0x08, 0x00,
  0x07, 0x00, 0x0c, 0x00, 0x10, 0x00, 0x14, 0x00, 0x0e, 0x00, 0x00, 0x00,
  0x00, 0x00, 0x00, 0x02, 0x64, 0x00, 0x00, 0x00, 0x02, 0x00, 0x00, 0x00,
  0x0c, 0x00, 0x00, 0x00, 0x04, 0x00, 0x00, 0x00, 0x80, 0xff, 0xff, 0xff,
  0x49, 0x00, 0x00, 0x00, 0x73, 0x65, 0x71, 0x75, 0x65, 0x6e, 0x74, 0x69,
  0x61, 0x6c, 0x2f, 0x66, 0x6c, 0x61, 0x74, 0x74, 0x65, 0x6e, 0x2f, 0x43,
  0x6f, 0x6e, 0x73, 0x74, 0x3b, 0x53, 0x74, 0x61, 0x74, 0x65, 0x66, 0x75,
  0x6c, 0x50, 0x61, 0x72, 0x74, 0x69, 0x74, 0x69, 0x6f, 0x6e, 0x65, 0x64,
  0x43, 0x61, 0x6c, 0x6c, 0x2f, 0x73, 0x65, 0x71, 0x75, 0x65, 0x6e, 0x74,
  0x69, 0x61, 0x6c, 0x2f, 0x66, 0x6c, 0x61, 0x74, 0x74, 0x65, 0x6e, 0x2f,
  0x43, 0x6f, 0x6e, 0x73, 0x74, 0x00, 0x00, 0x00, 0x01, 0x00, 0x00, 0x00,
  0x02, 0x00, 0x00, 0x00, 0x00, 0x00, 0x0e, 0x00, 0x14, 0x00, 0x04, 0x00,
  0x00, 0x00, 0x08, 0x00, 0x0c, 0x00, 0x10, 0x00, 0x0e, 0x00, 0x00, 0x00,
  0x20, 0x00, 0x00, 0x00, 0x01, 0x00, 0x00, 0x00, 0x10, 0x00, 0x00, 0x00,
  0x08, 0x00, 0x00, 0x00, 0x04, 0x00, 0x04, 0x00, 0x04, 0x00, 0x00, 0x00,
  0x01, 0x00, 0x00, 0x00, 0x78, 0x00, 0x00, 0x00, 0x04, 0x00, 0x00, 0x00,
  0x01, 0x00, 0x00, 0x00, 0x0a, 0x00, 0x00, 0x00, 0x19, 0x00, 0x00, 0x00,
  0x02, 0x00, 0x00, 0x00, 0x05, 0x00, 0x00, 0x00, 0x4c, 0x00, 0x00, 0x00,
  0x38, 0x00, 0x00, 0x00, 0x28, 0x00, 0x00, 0x00, 0x18, 0x00, 0x00, 0x00,
  0x0c, 0x00, 0x00, 0x00, 0x00, 0x00, 0x06, 0x00, 0x08, 0x00, 0x07, 0x00,
  0x06, 0x00, 0x00, 0x00, 0x00, 0x00, 0x00, 0x19, 0xe2, 0xff, 0xff, 0xff,
  0x00, 0x00, 0x00, 0x09, 0x03, 0x00, 0x00, 0x00, 0xfa, 0xff, 0xff, 0xff,
  0x00, 0x16, 0x06, 0x00, 0x06, 0x00, 0x05, 0x00, 0x06, 0x00, 0x00, 0x00,
  0x00, 0x11, 0x0a, 0x00, 0x0c, 0x00, 0x07, 0x00, 0x00, 0x00, 0x08, 0x00,
  0x0a, 0x00, 0x00, 0x00, 0x00, 0x00, 0x00, 0x03, 0x02, 0x00, 0x00, 0x00
};
unsigned int __ml_dataset_model_tflite_len = 5232;
