unsigned char __ml_dataset_model_tflite[] = {
  0x1c, 0x00, 0x00, 0x00, 0x54, 0x46, 0x4c, 0x33, 0x00, 0x00, 0x12, 0x00,
  0x1c, 0x00, 0x04, 0x00, 0x08, 0x00, 0x0c, 0x00, 0x10, 0x00, 0x14, 0x00,
  0x00, 0x00, 0x18, 0x00, 0x12, 0x00, 0x00, 0x00, 0x03, 0x00, 0x00, 0x00,
  0xf0, 0x13, 0x00, 0x00, 0x24, 0x0c, 0x00, 0x00, 0x0c, 0x0c, 0x00, 0x00,
  0x3c, 0x00, 0x00, 0x00, 0x04, 0x00, 0x00, 0x00, 0x01, 0x00, 0x00, 0x00,
  0x0c, 0x00, 0x00, 0x00, 0x08, 0x00, 0x0c, 0x00, 0x04, 0x00, 0x08, 0x00,
  0x08, 0x00, 0x00, 0x00, 0x08, 0x00, 0x00, 0x00, 0x0c, 0x00, 0x00, 0x00,
  0x13, 0x00, 0x00, 0x00, 0x6d, 0x69, 0x6e, 0x5f, 0x72, 0x75, 0x6e, 0x74,
  0x69, 0x6d, 0x65, 0x5f, 0x76, 0x65, 0x72, 0x73, 0x69, 0x6f, 0x6e, 0x00,
  0x0d, 0x00, 0x00, 0x00, 0xbc, 0x0b, 0x00, 0x00, 0xa8, 0x0b, 0x00, 0x00,
  0x8c, 0x0b, 0x00, 0x00, 0x68, 0x0b, 0x00, 0x00, 0xd4, 0x07, 0x00, 0x00,
  0xb0, 0x00, 0x00, 0x00, 0x8c, 0x00, 0x00, 0x00, 0x80, 0x00, 0x00, 0x00,
  0x6c, 0x00, 0x00, 0x00, 0x58, 0x00, 0x00, 0x00, 0x44, 0x00, 0x00, 0x00,
  0x30, 0x00, 0x00, 0x00, 0x04, 0x00, 0x00, 0x00, 0xea, 0xf3, 0xff, 0xff,
  0x04, 0x00, 0x00, 0x00, 0x10, 0x00, 0x00, 0x00, 0x31, 0x2e, 0x35, 0x2e,
  0x30, 0x00, 0x00, 0x00, 0x00, 0x00, 0x00, 0x00, 0x00, 0x00, 0x00, 0x00,
  0x00, 0x00, 0x00, 0x00, 0x00, 0x00, 0x00, 0x00, 0x00, 0x00, 0x00, 0x00,
  0xdc, 0xec, 0xff, 0xff, 0x00, 0x00, 0x00, 0x00, 0x00, 0x00, 0x00, 0x00,
  0x00, 0x00, 0x00, 0x00, 0xec, 0xec, 0xff, 0xff, 0x00, 0x00, 0x00, 0x00,
  0x00, 0x00, 0x00, 0x00, 0x00, 0x00, 0x00, 0x00, 0xfc, 0xec, 0xff, 0xff,
  0x00, 0x00, 0x00, 0x00, 0x00, 0x00, 0x00, 0x00, 0x00, 0x00, 0x00, 0x00,
  0x0c, 0xed, 0xff, 0xff, 0x00, 0x00, 0x00, 0x00, 0x00, 0x00, 0x00, 0x00,
  0x00, 0x00, 0x00, 0x00, 0x1c, 0xed, 0xff, 0xff, 0x00, 0x00, 0x00, 0x00,
  0x5a, 0xf4, 0xff, 0xff, 0x04, 0x00, 0x00, 0x00, 0x0c, 0x00, 0x00, 0x00,
  0x0d, 0x74, 0xb9, 0xbd, 0x77, 0x83, 0x30, 0xbe, 0x3a, 0x32, 0x0a, 0xbe,
  0x00, 0x00, 0x00, 0x00, 0x00, 0x00, 0x00, 0x00, 0x7a, 0xf4, 0xff, 0xff,
  0x04, 0x00, 0x00, 0x00, 0x08, 0x07, 0x00, 0x00, 0xfd, 0xb9, 0x72, 0x3e,
  0x32, 0xdb, 0x11, 0xbf, 0xfc, 0xf9, 0x83, 0xbe, 0x12, 0xc9, 0x74, 0x3d,
  0xff, 0xe6, 0x8f, 0xbe, 0x80, 0x17, 0xed, 0x3e, 0xab, 0x44, 0x5f, 0x3d,
  0x9a, 0x6b, 0xcd, 0x3d, 0x87, 0x8a, 0xd1, 0x3d, 0xac, 0x3c, 0xd0, 0xbd,
  0x54, 0x3d, 0x03, 0x3e, 0x6e, 0xd0, 0x07, 0xbe, 0x71, 0xb9, 0x31, 0xbe,
  0x64, 0xb4, 0x35, 0x3e, 0xa3, 0x25, 0x86, 0x3d, 0xf1, 0x16, 0x9a, 0xbc,
  0x23, 0x3a, 0x9f, 0x3e, 0xb2, 0xef, 0xec, 0xbe, 0xf6, 0x55, 0xc7, 0xbe,
  0xe9, 0xcf, 0xd3, 0xbb, 0x6a, 0x9c, 0xb4, 0x3d, 0x0d, 0x38, 0x4a, 0x3d,
  0x1d, 0x55, 0x26, 0x3e, 0x82, 0x0f, 0x39, 0xbe, 0xfa, 0xa4, 0x90, 0x3e,
  0x7f, 0x53, 0x6d, 0x3e, 0xa9, 0x5e, 0x8d, 0xbe, 0x80, 0x66, 0x9e, 0x3e,
  0xb4, 0x29, 0x4b, 0xbd, 0xb9, 0xf1, 0x5d, 0x3e, 0xe1, 0xe3, 0x07, 0xbd,
  0x71, 0x3c, 0x81, 0x3e, 0xb5, 0x80, 0xb2, 0xbd, 0x12, 0xf0, 0x80, 0x3f,
  0x22, 0xb8, 0x32, 0x3d, 0xcf, 0x45, 0xdb, 0xbd, 0x09, 0x21, 0xb2, 0xbd,
  0x86, 0x8e, 0xda, 0x3e, 0xa6, 0xc2, 0xaf, 0x3c, 0x70, 0x46, 0x81, 0x3e,
  0x78, 0xbc, 0xb9, 0x3d, 0x10, 0xdf, 0xba, 0x3e, 0xc0, 0x21, 0x35, 0xbe,
  0x75, 0x34, 0xa9, 0xbe, 0xde, 0xa3, 0x8f, 0x3e, 0x69, 0x3c, 0x92, 0x3e,
  0xb9, 0xa6, 0x4c, 0x3e, 0xc3, 0x0c, 0x01, 0x3f, 0x1c, 0xd9, 0x54, 0xbe,
  0x21, 0x73, 0x3b, 0x3f, 0xd8, 0xb0, 0x10, 0xbd, 0x44, 0xb5, 0xf1, 0xbe,
  0xe6, 0xa4, 0x3f, 0xbe, 0xde, 0x5c, 0x83, 0xbd, 0x20, 0x7a, 0xc7, 0xbe,
  0x37, 0x36, 0xbe, 0x3e, 0xea, 0xaf, 0x3f, 0xbe, 0x7b, 0xca, 0xa4, 0x3e,
  0xb3, 0xbf, 0x91, 0x3e, 0x27, 0xeb, 0x13, 0xbe, 0x0f, 0xb5, 0x8c, 0x3d,
  0x04, 0xee, 0x0d, 0xbf, 0x77, 0xce, 0x96, 0x3d, 0x69, 0x4b, 0x35, 0xbf,
  0x48, 0x91, 0x06, 0x3e, 0x93, 0x75, 0xe6, 0x3e, 0x71, 0x8e, 0xf5, 0x3d,
  0x23, 0x8f, 0xc2, 0x3e, 0x73, 0x9c, 0x2c, 0xbc, 0xfa, 0x0e, 0x56, 0x3e,
  0xf4, 0xfa, 0xc6, 0x3e, 0x77, 0x5c, 0x58, 0xbe, 0x2d, 0x9d, 0x52, 0x3e,
  0x18, 0xfe, 0x29, 0xbf, 0x5e, 0x4d, 0xb1, 0x3e, 0xeb, 0xfa, 0xf4, 0x3e,
  0x80, 0xee, 0x85, 0xbd, 0x41, 0x6e, 0x42, 0x3f, 0xf9, 0x64, 0x2d, 0xbe,
  0x88, 0x98, 0x1f, 0xbc, 0xc1, 0x48, 0xbb, 0xbd, 0x84, 0xbe, 0x16, 0x3e,
  0x46, 0x7b, 0x41, 0xbb, 0xc6, 0x0d, 0x40, 0x3e, 0xf3, 0x55, 0xef, 0xbd,
  0x03, 0x50, 0x87, 0x3e, 0xa5, 0x7d, 0xb3, 0xbd, 0x58, 0xc6, 0x00, 0x3e,
  0xc9, 0x32, 0xd3, 0x3d, 0x6a, 0x85, 0x9c, 0x3f, 0xec, 0xee, 0x1e, 0xbe,
  0x52, 0x67, 0x1e, 0x3f, 0xe3, 0x31, 0x8d, 0x3d, 0x42, 0x8f, 0xfa, 0x3e,
  0x40, 0xa0, 0x8a, 0x3e, 0x16, 0xfd, 0x20, 0x3f, 0x54, 0x3f, 0xcb, 0x3d,
  0x70, 0xd7, 0xc8, 0xbd, 0x58, 0x51, 0x11, 0xbe, 0x24, 0xab, 0x7d, 0xbd,
  0x44, 0x4d, 0x2d, 0x3b, 0xcb, 0xa0, 0xa8, 0xbc, 0xcd, 0xff, 0xe1, 0xbe,
  0x10, 0xc3, 0x44, 0x3e, 0x19, 0x62, 0xd7, 0xbe, 0xf6, 0x14, 0x9e, 0x3d,
  0x35, 0xd4, 0xd8, 0xbd, 0x1c, 0x19, 0xad, 0xbd, 0xad, 0x05, 0x3a, 0x3e,
  0xfd, 0x53, 0x12, 0xbe, 0x65, 0x1c, 0x7a, 0x3e, 0xc5, 0x56, 0x5a, 0xbe,
  0x99, 0xd2, 0x85, 0xbd, 0x75, 0x6f, 0xf8, 0x3c, 0x3c, 0x02, 0x20, 0xbd,
  0x06, 0x44, 0xa6, 0xbe, 0xac, 0x8f, 0x65, 0x3d, 0x23, 0xe9, 0x30, 0x3e,
  0x80, 0x4e, 0x4d, 0xbd, 0x1d, 0xf1, 0x18, 0x3e, 0xf9, 0xf9, 0x6d, 0x3e,
  0x4f, 0x54, 0x22, 0xbd, 0x26, 0xc8, 0x7e, 0x3e, 0x94, 0xee, 0x14, 0xbe,
  0xd2, 0x46, 0x6b, 0x3e, 0x10, 0x7f, 0x2a, 0x3e, 0x8e, 0x56, 0x37, 0x3d,
  0xd3, 0x2f, 0xd0, 0x3d, 0xdb, 0x71, 0x32, 0x3d, 0x4f, 0x1f, 0x37, 0x3e,
  0x9a, 0x59, 0xe2, 0xbc, 0x72, 0x14, 0x77, 0xbc, 0xda, 0x13, 0x0f, 0xbe,
  0xa9, 0x1c, 0x14, 0x3e, 0xac, 0x03, 0xac, 0xbd, 0x66, 0xda, 0xfa, 0x3d,
  0xe3, 0xe0, 0x95, 0xbe, 0x3d, 0x63, 0xa6, 0x3e, 0x33, 0x59, 0x4c, 0xbe,
  0x89, 0x37, 0x9b, 0x3e, 0x5a, 0xcb, 0x2c, 0xbd, 0x82, 0xe9, 0xd8, 0x3d,
  0x97, 0xca, 0x0b, 0xbe, 0x20, 0x17, 0xb3, 0x3d, 0x36, 0x28, 0x9c, 0x3e,
  0xd0, 0x56, 0x5b, 0x3f, 0x8a, 0xb3, 0xe0, 0xbd, 0x4d, 0xf8, 0xa7, 0x3d,
  0x51, 0x44, 0x93, 0x3b, 0xcf, 0x0e, 0xe7, 0x3e, 0x0b, 0x69, 0x7a, 0x3e,
  0x6c, 0x62, 0x48, 0xbe, 0x09, 0x8a, 0x43, 0x3e, 0xa0, 0x7f, 0x51, 0xbe,
  0x25, 0xb0, 0x04, 0x3e, 0x3e, 0x4c, 0x80, 0x3e, 0xaa, 0xeb, 0x02, 0x3e,
  0xd5, 0x2f, 0x8a, 0x3e, 0xac, 0x0b, 0xd8, 0xbd, 0x53, 0x91, 0x02, 0x3e,
  0x7b, 0x39, 0xb9, 0xbe, 0x98, 0xea, 0x19, 0x3e, 0x1d, 0xaa, 0xa1, 0x3e,
  0xe5, 0x71, 0x9b, 0xbe, 0x6d, 0x28, 0x8d, 0x3e, 0x6f, 0xc9, 0xb9, 0x3d,
  0xbe, 0xbc, 0xca, 0xbe, 0xea, 0xbb, 0xee, 0x3e, 0xa1, 0xc7, 0x2c, 0x3e,
  0x2a, 0x1f, 0x4a, 0xbe, 0x46, 0x16, 0xa9, 0xbe, 0xcf, 0x28, 0x39, 0x3d,
  0x16, 0x15, 0x2b, 0xbd, 0xdd, 0x14, 0x39, 0x3e, 0xe0, 0xc1, 0xdd, 0x3e,
  0x14, 0xec, 0x10, 0xbf, 0xd4, 0x41, 0xcf, 0x3c, 0xff, 0x0c, 0xa2, 0xbd,
  0xb6, 0x48, 0x17, 0x3e, 0x73, 0x19, 0x61, 0x3f, 0xaa, 0xcc, 0x76, 0x3e,
  0x29, 0x83, 0x77, 0x3d, 0x70, 0x57, 0xba, 0x3e, 0xe0, 0x93, 0x6c, 0x3e,
  0x35, 0xd8, 0x10, 0xbd, 0x0c, 0xe7, 0x54, 0x3e, 0xf6, 0xba, 0xd9, 0x3e,
  0x8b, 0x5e, 0xe8, 0x3e, 0x98, 0xa7, 0xe7, 0x3e, 0x79, 0x77, 0x32, 0x3b,
  0x5d, 0xc4, 0x88, 0x3e, 0xa3, 0x92, 0x43, 0xbd, 0x86, 0x5d, 0xb7, 0x3e,
  0xac, 0xbf, 0x8e, 0x3d, 0x42, 0x84, 0xcb, 0x3e, 0xde, 0x59, 0xa8, 0x3c,
  0xd5, 0xf8, 0x31, 0xbd, 0x57, 0xb4, 0x88, 0xbd, 0xc4, 0x79, 0xe1, 0xbd,
  0x93, 0x2b, 0x40, 0x3e, 0x2f, 0x2a, 0x54, 0x3e, 0x7f, 0x4f, 0x02, 0xbf,
  0x7e, 0xe8, 0x91, 0x3d, 0x8b, 0x59, 0x52, 0xbf, 0x30, 0x9a, 0x2f, 0x3e,
  0x8c, 0xaf, 0x9a, 0x3e, 0x4f, 0x69, 0x6b, 0xbe, 0xe9, 0xec, 0x28, 0x3f,
  0x97, 0xd2, 0xe9, 0x3d, 0x52, 0x09, 0x4e, 0x3e, 0x52, 0xfd, 0xa2, 0xbe,
  0xcb, 0x40, 0xf6, 0xbd, 0x04, 0x25, 0x51, 0x3c, 0xc9, 0xa0, 0xfc, 0xbd,
  0x38, 0x67, 0x9d, 0x3d, 0x5b, 0x3f, 0xba, 0x3d, 0xff, 0xc1, 0xe1, 0xbe,
  0xa2, 0x09, 0x08, 0xbd, 0xbc, 0xf1, 0x91, 0x3d, 0x6d, 0x8e, 0x51, 0xbd,
  0x5c, 0xa3, 0xfc, 0xbe, 0xaa, 0xb5, 0x1d, 0xbb, 0x33, 0xfe, 0x49, 0xbe,
  0xea, 0x5c, 0xc4, 0x3d, 0x67, 0x7e, 0x04, 0x3e, 0xf9, 0x22, 0x90, 0xbe,
  0x02, 0x15, 0xce, 0xbd, 0xe3, 0x03, 0xd4, 0x3d, 0x2d, 0x48, 0x9d, 0x3e,
  0xa4, 0xf5, 0xf0, 0xbe, 0x10, 0x77, 0x43, 0x3e, 0xdf, 0x52, 0xd3, 0xbd,
  0x96, 0xbd, 0x38, 0x3e, 0x0d, 0x0b, 0x86, 0xbd, 0xa0, 0x17, 0x81, 0x3d,
  0x84, 0xe9, 0xa3, 0x3e, 0xea, 0xe3, 0x20, 0x3f, 0xc6, 0xe1, 0x95, 0x3d,
  0x62, 0xd9, 0xc1, 0x3e, 0x5e, 0x65, 0xf0, 0xbd, 0x9a, 0x75, 0x5d, 0x3e,
  0xf4, 0xb0, 0xa3, 0x3d, 0xfb, 0x02, 0xca, 0x3e, 0xb0, 0xd5, 0x4e, 0x3e,
  0x90, 0xbc, 0xb4, 0x3e, 0xac, 0xbb, 0x2f, 0xbc, 0x2b, 0x88, 0x9b, 0x3e,
  0x9b, 0x8b, 0xa3, 0x3c, 0x43, 0x32, 0x91, 0x3d, 0x18, 0x39, 0x64, 0xbc,
  0xeb, 0x25, 0x87, 0x3c, 0xbd, 0x50, 0x23, 0xbc, 0x57, 0x82, 0xba, 0x3e,
  0xe9, 0x00, 0x83, 0xbe, 0x41, 0x81, 0xb3, 0x3e, 0x7d, 0x79, 0x69, 0xbd,
  0x40, 0x4d, 0xaa, 0xbe, 0x49, 0x6a, 0xad, 0x3e, 0xd5, 0x84, 0x9f, 0xbe,
  0x8c, 0x05, 0x41, 0x3e, 0x9a, 0x07, 0x41, 0xbe, 0x15, 0xbf, 0x87, 0xbd,
  0x49, 0x0e, 0x3d, 0x3e, 0xb4, 0xb7, 0x15, 0xbe, 0x12, 0x58, 0x8c, 0x3e,
  0xd6, 0xd4, 0x7e, 0x3b, 0xd2, 0x00, 0xb9, 0xbd, 0x04, 0x03, 0xb9, 0x3d,
  0x5f, 0xd0, 0x86, 0xbd, 0xb3, 0xdd, 0x86, 0x3d, 0x9e, 0x6a, 0x09, 0xbf,
  0x51, 0xc3, 0x7b, 0x3e, 0xc9, 0x80, 0xa2, 0xbe, 0xf0, 0x57, 0xef, 0xbc,
  0xe3, 0x48, 0x21, 0x3e, 0x2c, 0xc5, 0x86, 0xbe, 0xc3, 0x62, 0x57, 0x3e,
  0xde, 0x10, 0x1d, 0x3d, 0x1d, 0x12, 0x45, 0x3f, 0x17, 0x2a, 0x98, 0x3e,
  0x20, 0xc7, 0x49, 0x3e, 0xd0, 0x0a, 0xed, 0x3d, 0xf1, 0x13, 0xaf, 0x3e,
  0x66, 0x0c, 0x3e, 0x3e, 0xac, 0xea, 0xd7, 0xbd, 0xe3, 0x9b, 0xc8, 0x3e,
  0xa6, 0x03, 0xcd, 0x3e, 0x44, 0xac, 0xb5, 0xbd, 0x7d, 0x68, 0x3a, 0x3f,
  0xb5, 0x1e, 0xe7, 0x3d, 0xb6, 0xfa, 0xb3, 0x3d, 0x7f, 0x8c, 0x14, 0xbe,
  0xd6, 0xc1, 0x34, 0xbe, 0x7a, 0x53, 0x9a, 0xbd, 0x8d, 0x76, 0xf0, 0x3d,
  0x34, 0xa4, 0xb8, 0xbb, 0xa1, 0xe6, 0x74, 0x3e, 0x65, 0xf9, 0x09, 0x3e,
  0xb2, 0x90, 0x27, 0xbd, 0x05, 0xd5, 0x94, 0xbe, 0x1d, 0x5e, 0x6a, 0x3c,
  0x0a, 0x5f, 0x72, 0x3e, 0xff, 0x38, 0x20, 0x3d, 0x27, 0xe0, 0xc3, 0x3c,
  0xf4, 0x00, 0x1a, 0x3e, 0x35, 0xf2, 0x19, 0xbe, 0x1d, 0x7c, 0xb0, 0xbe,
  0x81, 0x5f, 0x0e, 0xbe, 0xa6, 0xa8, 0x82, 0x3e, 0xf1, 0x8a, 0x8e, 0xbe,
  0xff, 0x03, 0x34, 0xbe, 0xe1, 0xe1, 0xf1, 0x3d, 0x56, 0xb1, 0x4f, 0xbe,
  0xb2, 0xd1, 0x44, 0xbe, 0x9f, 0xeb, 0x00, 0xbe, 0x51, 0xf5, 0x0b, 0x3e,
  0x03, 0x63, 0x38, 0x3e, 0x31, 0xf4, 0x46, 0xbb, 0xc3, 0x07, 0xb5, 0xbd,
  0xd8, 0x63, 0x2a, 0x3d, 0x1a, 0xb1, 0x28, 0x3e, 0x28, 0xaa, 0x3c, 0x3e,
  0x65, 0xa8, 0x9d, 0x3e, 0xc7, 0x35, 0xbe, 0xbe, 0x95, 0xec, 0x41, 0x3e,
  0xe6, 0xeb, 0x13, 0xbe, 0xf7, 0x24, 0x48, 0x3e, 0x36, 0x6d, 0x6f, 0x3f,
  0xa7, 0x65, 0x56, 0x3d, 0x52, 0xaa, 0x49, 0x3f, 0xd3, 0x1d, 0xa8, 0x3e,
  0xc5, 0x53, 0x81, 0x3e, 0xb7, 0x51, 0x54, 0x3e, 0xb8, 0x12, 0x63, 0x3d,
  0xde, 0xef, 0x64, 0x3e, 0x48, 0xff, 0x76, 0x3e, 0xe4, 0xde, 0xd5, 0xbd,
  0x41, 0x31, 0x4a, 0xbd, 0xb0, 0xe4, 0x52, 0x3f, 0x8f, 0xfa, 0x19, 0x3e,
  0x37, 0x05, 0x27, 0x3d, 0xd5, 0x80, 0xaf, 0x3d, 0x41, 0x23, 0xc4, 0x3e,
  0x4c, 0x12, 0x9c, 0x3e, 0xd2, 0xb7, 0xae, 0x3e, 0x50, 0xef, 0xf2, 0x3c,
  0xef, 0xff, 0x1d, 0xbd, 0x33, 0x55, 0x1a, 0x3d, 0x63, 0x61, 0xe8, 0xbc,
  0xc9, 0xa5, 0x6e, 0x3d, 0xc3, 0xf9, 0xd0, 0x3e, 0xda, 0xf6, 0xda, 0x3d,
  0xde, 0xfd, 0xcb, 0xbd, 0x8b, 0x1b, 0xbc, 0xbd, 0x4f, 0xba, 0x91, 0xbe,
  0x98, 0x63, 0x93, 0xbe, 0x9b, 0x2b, 0x15, 0x3f, 0xf1, 0x1f, 0x37, 0x3e,
  0xbb, 0x79, 0x39, 0x3e, 0xc4, 0x23, 0x0b, 0xbf, 0xcf, 0x54, 0x80, 0xbe,
  0xa2, 0x82, 0x71, 0xbe, 0x43, 0x69, 0x8e, 0x3e, 0xe2, 0xe8, 0xd9, 0x3e,
  0xbd, 0x44, 0xe6, 0x3d, 0x35, 0x33, 0xd4, 0x3c, 0x02, 0x3f, 0x06, 0x3e,
  0x7e, 0x61, 0x12, 0xbe, 0xfe, 0xbe, 0x69, 0xbe, 0x38, 0x73, 0xa9, 0x3d,
  0x2e, 0xeb, 0xe5, 0x3d, 0x22, 0x22, 0x07, 0x3e, 0x4e, 0x72, 0x48, 0xbd,
  0x6d, 0xf1, 0xdb, 0x3d, 0xb3, 0x85, 0xc3, 0x3d, 0x3b, 0x69, 0x9a, 0xb9,
  0x5b, 0xf3, 0x34, 0x3e, 0x56, 0x23, 0x9a, 0x3e, 0x2f, 0x04, 0x5a, 0x3d,
  0x64, 0x45, 0x59, 0xbe, 0x62, 0x9c, 0xb0, 0x3e, 0x96, 0xf3, 0xc2, 0x3f,
  0xb4, 0x80, 0x48, 0x3e, 0xe3, 0xe2, 0x95, 0x3e, 0x71, 0xa0, 0x1a, 0x3e,
  0xee, 0x01, 0x31, 0x3f, 0xb8, 0x6e, 0xe9, 0xbd, 0x82, 0x31, 0x52, 0xbe,
  0x98, 0x86, 0x73, 0x3e, 0x83, 0xe4, 0xb8, 0x3d, 0xbd, 0xe2, 0x92, 0x3e,
  0x27, 0xf5, 0xb2, 0xbd, 0x9e, 0xc5, 0x9d, 0x3e, 0xa9, 0x72, 0xd6, 0x3d,
  0x6b, 0x69, 0x14, 0x3f, 0x54, 0x49, 0x5d, 0x3e, 0x93, 0x73, 0x5d, 0x3c,
  0x0e, 0xfc, 0x16, 0x3e, 0x83, 0x18, 0xaa, 0x3b, 0x37, 0xd7, 0x22, 0xbe,
  0xc7, 0xfe, 0x69, 0x3c, 0x42, 0x7d, 0xa0, 0xbb, 0x87, 0x70, 0xab, 0xbd,
  0x0c, 0xe0, 0x9b, 0x3d, 0xff, 0x61, 0x50, 0x3e, 0x0c, 0x6d, 0xde, 0xbd,
  0xfd, 0xa2, 0x54, 0x3e, 0x39, 0x26, 0x03, 0x3e, 0x5f, 0x8c, 0x60, 0x3e,
  0xfb, 0x73, 0x57, 0xbe, 0x46, 0x89, 0xc1, 0xbd, 0x11, 0x56, 0xf9, 0x3d,
  0x90, 0x83, 0x63, 0xbe, 0xd8, 0x4b, 0x85, 0xbd, 0x23, 0x6c, 0x00, 0x3e,
  0xdd, 0xb8, 0x2d, 0x3e, 0xc4, 0xf5, 0x33, 0x3e, 0x3a, 0x04, 0x9f, 0xbe,
  0xe9, 0x5b, 0x78, 0xbe, 0x26, 0xad, 0x86, 0x3e, 0x0b, 0xd1, 0x80, 0xbe,
  0x31, 0xb3, 0x30, 0x3e, 0x85, 0xc5, 0x7e, 0xbd, 0x94, 0x2b, 0xb5, 0xba,
  0x2c, 0x03, 0x8b, 0xbd, 0xfe, 0xe1, 0x16, 0x3e, 0xca, 0x44, 0x6f, 0x3e,
  0x1c, 0x5a, 0xcd, 0xbd, 0xa8, 0x45, 0xb6, 0x3d, 0x31, 0xe5, 0x54, 0x3e,
  0xb5, 0xa8, 0xa7, 0x3d, 0xec, 0x82, 0x36, 0x3e, 0xdc, 0xaf, 0x31, 0xbd,
  0xe8, 0x8b, 0xb1, 0x3f, 0xde, 0x6d, 0x90, 0x3e, 0xb1, 0x43, 0xc3, 0x3d,
  0x16, 0xf4, 0x1d, 0x3e, 0xe8, 0xf0, 0x88, 0x3e, 0xd4, 0x34, 0xd6, 0x3e,
  0xb5, 0x3b, 0x80, 0x3e, 0xfd, 0x9a, 0x14, 0x3f, 0xd5, 0xe5, 0x91, 0x3e,
  0x24, 0xdd, 0x31, 0xbe, 0x79, 0xaf, 0xe9, 0x3e, 0xb6, 0xb9, 0x91, 0x3e,
  0xd7, 0x3e, 0x8b, 0x3d, 0x38, 0x30, 0x2f, 0xbe, 0xa4, 0xf6, 0x1a, 0x3d,
  0x2b, 0x2a, 0x6f, 0xbd, 0xca, 0x7f, 0xf1, 0x3b, 0x00, 0x00, 0x00, 0x00,
  0x00, 0x00, 0x00, 0x00, 0x00, 0x00, 0x00, 0x00, 0x9a, 0xfb, 0xff, 0xff,
  0x04, 0x00, 0x00, 0x00, 0x84, 0x03, 0x00, 0x00, 0x50, 0x47, 0x98, 0xbd,
  0xeb, 0x2c, 0x13, 0x3f, 0x00, 0x16, 0xd3, 0x3e, 0x3f, 0x14, 0x45, 0x3f,
  0xb5, 0x5d, 0xef, 0xbe, 0xc4, 0xf5, 0x0e, 0x3f, 0x8e, 0xb0, 0x0b, 0x3f,
  0x72, 0x08, 0x31, 0xbe, 0x2f, 0xad, 0x18, 0xbe, 0x4c, 0xd2, 0xbd, 0xbe,
  0xa1, 0x59, 0x6e, 0x3e, 0xe3, 0xab, 0xce, 0xbd, 0xba, 0x10, 0xc8, 0x3e,
  0x23, 0x73, 0xb6, 0xbe, 0x75, 0x2f, 0x0c, 0x3f, 0x02, 0xc5, 0xf4, 0x3d,
  0x41, 0x71, 0xf4, 0x3d, 0xb4, 0xa1, 0x66, 0xbc, 0xed, 0x79, 0x52, 0x3f,
  0xae, 0xab, 0xee, 0x3e, 0xe4, 0xb8, 0x9f, 0x3d, 0x98, 0xad, 0xd5, 0x3e,
  0x4b, 0xf0, 0xc5, 0xbd, 0x44, 0x22, 0xb0, 0x3e, 0xc3, 0x85, 0x06, 0x3f,
  0x3f, 0x0b, 0xf6, 0xbe, 0x21, 0xf7, 0x0e, 0x3f, 0x9d, 0x11, 0x50, 0xbe,
  0x7d, 0x02, 0x5d, 0xbe, 0x04, 0x65, 0x67, 0xbd, 0x09, 0x67, 0x9f, 0xbe,
  0x5f, 0x4e, 0x52, 0x3e, 0x9f, 0x85, 0x1d, 0x3f, 0xb0, 0xec, 0x69, 0xbe,
  0xc4, 0xc2, 0x5b, 0x3f, 0x50, 0xd3, 0x92, 0xbe, 0x35, 0x53, 0x34, 0x3f,
  0x91, 0x71, 0xaa, 0x3e, 0xae, 0x4b, 0x9e, 0x3d, 0x2e, 0x9b, 0xa0, 0x3e,
  0x2b, 0x5c, 0xa5, 0x3d, 0x6f, 0x82, 0xea, 0x3e, 0x34, 0x9b, 0x84, 0xbd,
  0xf4, 0x62, 0x04, 0xbf, 0x71, 0xb0, 0x2b, 0x3d, 0xe4, 0x2a, 0xab, 0x3c,
  0x29, 0xe0, 0x37, 0xbe, 0xda, 0x73, 0x8d, 0xbe, 0x46, 0xf5, 0x82, 0xbe,
  0x09, 0xbf, 0xdb, 0xbe, 0x8b, 0xaf, 0x9d, 0xbd, 0x9a, 0xef, 0xcd, 0x3d,
  0xf0, 0x22, 0xe2, 0xbd, 0x26, 0xf4, 0xb9, 0xbe, 0xbf, 0xf4, 0x9c, 0xbd,
  0xdc, 0x18, 0xfd, 0xbd, 0xd3, 0xeb, 0x9f, 0xbd, 0x6a, 0xa8, 0xb4, 0xbc,
  0x56, 0x84, 0x99, 0xbd, 0xe1, 0xd2, 0x92, 0xbe, 0x97, 0x34, 0x62, 0xbe,
  0xc4, 0xb5, 0x7a, 0xbc, 0x08, 0x3b, 0x81, 0x3c, 0x84, 0x43, 0xc1, 0x3d,
  0x18, 0x05, 0xbb, 0xbd, 0xb4, 0x82, 0x3f, 0xbe, 0xf0, 0xdb, 0x72, 0x3d,
  0x20, 0x61, 0xd8, 0xbd, 0xa0, 0x27, 0x99, 0x3d, 0xab, 0x6c, 0xce, 0xbe,
  0x6d, 0x74, 0xc0, 0xbe, 0x34, 0xec, 0xba, 0xbe, 0xf1, 0x4a, 0x7d, 0xbe,
  0xcd, 0xef, 0xbb, 0xbe, 0xf7, 0x53, 0xb5, 0xbe, 0xad, 0xec, 0xa4, 0xbe,
  0x92, 0xbb, 0x8c, 0xbe, 0xa9, 0xfa, 0x13, 0x3e, 0x5a, 0xdf, 0x62, 0xbe,
  0x67, 0x22, 0x8a, 0x3e, 0x6e, 0x70, 0xd1, 0x3d, 0xfa, 0x40, 0xde, 0xbe,
  0x8a, 0xab, 0x06, 0x3f, 0xf7, 0x25, 0x85, 0xbe, 0xff, 0x52, 0x86, 0xbe,
  0x83, 0xc4, 0x26, 0x3e, 0xa2, 0x09, 0xd0, 0x3e, 0x77, 0xf6, 0xda, 0xbd,
  0x44, 0x89, 0x07, 0x3e, 0x6e, 0x3c, 0xc0, 0xbe, 0xa2, 0x45, 0x29, 0xbf,
  0x4c, 0x43, 0x05, 0xbe, 0xea, 0xca, 0x1d, 0x3e, 0x13, 0xbf, 0x5b, 0x3e,
  0xc3, 0x63, 0xe3, 0xbe, 0x9b, 0xbd, 0x9a, 0xbe, 0x90, 0xc1, 0x35, 0x3c,
  0x52, 0x41, 0xf8, 0x3e, 0x5f, 0x98, 0xfc, 0x3e, 0x1d, 0xd5, 0xed, 0xbe,
  0xc2, 0x71, 0xbb, 0x3e, 0x0e, 0x7f, 0xf0, 0xbd, 0x99, 0xc8, 0xad, 0xbe,
  0x58, 0xc7, 0xf9, 0x3d, 0x6b, 0x04, 0xab, 0xbe, 0x53, 0xf9, 0xe1, 0x3e,
  0xb7, 0xc3, 0x15, 0xbe, 0x2e, 0x03, 0xe3, 0xbe, 0x0c, 0x7e, 0x15, 0x3f,
  0x98, 0xc6, 0x09, 0xbd, 0xdb, 0x22, 0x97, 0x3e, 0xeb, 0xfa, 0x26, 0xbe,
  0x76, 0x26, 0xab, 0xbe, 0x98, 0x15, 0x79, 0xbe, 0x2f, 0x75, 0x2e, 0x3e,
  0x59, 0x57, 0x9d, 0x3e, 0x8a, 0x8b, 0xf8, 0xbd, 0x59, 0xbe, 0xd3, 0x3e,
  0x43, 0x6a, 0xab, 0xbb, 0x9f, 0x0e, 0xc3, 0x3e, 0xc1, 0x2f, 0xd5, 0x3d,
  0xdf, 0xbf, 0x08, 0x3f, 0x51, 0xf2, 0xda, 0x3e, 0xf7, 0xef, 0xd9, 0x3e,
  0x58, 0x9f, 0x7d, 0x3e, 0x7a, 0x85, 0x8e, 0x3e, 0xf8, 0xe9, 0xd8, 0xba,
  0x57, 0xde, 0x11, 0x3f, 0x37, 0xfb, 0x98, 0x3e, 0x2c, 0x7d, 0x7f, 0xbd,
  0x43, 0xbb, 0xf4, 0x3e, 0x09, 0x0d, 0x83, 0x3e, 0x5d, 0xbc, 0x10, 0xbd,
  0xa9, 0x47, 0xe4, 0xbc, 0x9f, 0xaa, 0xf4, 0x3d, 0xc0, 0x7f, 0x28, 0xbd,
  0x6a, 0x78, 0x02, 0x3f, 0x40, 0x31, 0x82, 0x3e, 0x61, 0x4a, 0x93, 0xbc,
  0x4c, 0x32, 0x94, 0x3e, 0x79, 0x7d, 0xd9, 0x3e, 0x9e, 0x0a, 0xc1, 0xba,
  0xa7, 0x95, 0xce, 0x3e, 0x4d, 0x8a, 0x2b, 0xbd, 0x10, 0x80, 0x48, 0xbd,
  0xa7, 0x0e, 0xe9, 0x3d, 0xc6, 0xa9, 0xf3, 0x3e, 0xf9, 0x10, 0x9a, 0x3e,
  0x84, 0x37, 0xa2, 0x3e, 0x0b, 0x5b, 0x0e, 0x3e, 0x45, 0xcd, 0x20, 0x3e,
  0x8e, 0x11, 0x6f, 0xbf, 0x45, 0x3f, 0xb6, 0xbe, 0x02, 0x0d, 0x18, 0xbf,
  0x41, 0xc3, 0x65, 0x3e, 0xb0, 0x84, 0x4c, 0xbe, 0x89, 0x56, 0x36, 0xbb,
  0x53, 0x28, 0xa2, 0xbd, 0x80, 0x78, 0xfd, 0xba, 0x9d, 0xa8, 0xe4, 0x3e,
  0x9d, 0x92, 0x09, 0xbe, 0xbe, 0x5e, 0x3d, 0xbe, 0x20, 0xdb, 0x1c, 0xbe,
  0xa6, 0xc1, 0x22, 0xbf, 0x35, 0x33, 0xaa, 0xbe, 0xf1, 0x62, 0x8d, 0x3e,
  0x9a, 0xc3, 0x20, 0x3e, 0xcf, 0x17, 0x2c, 0xbe, 0x3d, 0xb0, 0x04, 0xbf,
  0x4d, 0xbf, 0xc0, 0xbe, 0x7f, 0x9b, 0x6d, 0x3d, 0xf7, 0x6f, 0x63, 0xbf,
  0xef, 0xea, 0x80, 0xbe, 0xbd, 0xee, 0x22, 0xbf, 0x20, 0x8a, 0xb8, 0xbd,
  0xbb, 0xa3, 0x43, 0x3e, 0x02, 0x83, 0xbc, 0xbe, 0x44, 0x1d, 0x09, 0x3e,
  0xe5, 0x11, 0x55, 0xbe, 0xde, 0xfa, 0x91, 0x3e, 0x0d, 0x55, 0x7d, 0x3e,
  0x2e, 0x0a, 0x11, 0x3e, 0x30, 0xf8, 0x03, 0xbf, 0x22, 0x56, 0x55, 0xbf,
  0xb6, 0x1b, 0xfa, 0xbe, 0x05, 0x04, 0x9a, 0xbe, 0x62, 0xdc, 0x60, 0xbf,
  0xcb, 0xb5, 0x26, 0xbf, 0x38, 0x73, 0x69, 0x3e, 0xcf, 0xb8, 0x19, 0xbf,
  0xb1, 0xf6, 0xb5, 0xbd, 0x9c, 0xaa, 0x73, 0xbd, 0x70, 0xa1, 0x0a, 0xbf,
  0xfc, 0xaf, 0xab, 0xbe, 0xd0, 0xa6, 0x19, 0xbf, 0x9d, 0xe7, 0x15, 0xbe,
  0xfa, 0x9a, 0xdd, 0xbe, 0xce, 0xf2, 0x61, 0xbe, 0x86, 0x86, 0x8c, 0xbe,
  0x91, 0xaa, 0x92, 0xbe, 0x85, 0xef, 0xe2, 0xbe, 0xac, 0x17, 0x6e, 0xbe,
  0xba, 0xff, 0x34, 0xbf, 0x86, 0x5f, 0xeb, 0xbe, 0xe2, 0xd4, 0xb2, 0xbd,
  0x9e, 0x1a, 0x2a, 0xbf, 0x9a, 0x31, 0x03, 0xbe, 0x80, 0x61, 0x3c, 0x3d,
  0xfd, 0xa0, 0x41, 0xbe, 0x99, 0xb1, 0x06, 0xbf, 0x59, 0xc7, 0x92, 0xbe,
  0xbe, 0xbf, 0x21, 0xbe, 0xbe, 0x4b, 0xbf, 0xbe, 0xa6, 0xfd, 0x0a, 0xbe,
  0x1e, 0x30, 0x46, 0xbe, 0x40, 0xa6, 0xcb, 0xbd, 0x8d, 0xf9, 0x99, 0xbe,
  0x64, 0x57, 0xc2, 0xbe, 0x13, 0xc6, 0xea, 0xbe, 0x03, 0x32, 0x64, 0xbd,
  0x50, 0xc4, 0x13, 0xbd, 0x39, 0x0b, 0x21, 0xbf, 0xcf, 0xbc, 0x23, 0xbf,
  0x07, 0xc6, 0xe8, 0xbe, 0xda, 0xf0, 0xa3, 0xbd, 0x2a, 0xff, 0xff, 0xff,
  0x04, 0x00, 0x00, 0x00, 0x0c, 0x00, 0x00, 0x00, 0xdd, 0x0f, 0x65, 0xbd,
  0x47, 0xc3, 0x8b, 0x3c, 0xb3, 0x23, 0x1f, 0x3c, 0x00, 0x00, 0x00, 0x00,
  0x00, 0x00, 0x00, 0x00, 0x4a, 0xff, 0xff, 0xff, 0x04, 0x00, 0x00, 0x00,
  0x08, 0x00, 0x00, 0x00, 0xff, 0xff, 0xff, 0xff, 0x4b, 0x00, 0x00, 0x00,
  0x00, 0x00, 0x00, 0x00, 0x2c, 0xf8, 0xff, 0xff, 0x00, 0x00, 0x00, 0x00,
  0x00, 0x00, 0x00, 0x00, 0x00, 0x00, 0x00, 0x00, 0x3c, 0xf8, 0xff, 0xff,
  0x00, 0x00, 0x00, 0x00, 0x00, 0x00, 0x00, 0x00, 0x0f, 0x00, 0x00, 0x00,
  0x4d, 0x4c, 0x49, 0x52, 0x20, 0x43, 0x6f, 0x6e, 0x76, 0x65, 0x72, 0x74,
  0x65, 0x64, 0x2e, 0x00, 0x01, 0x00, 0x00, 0x00, 0x14, 0x00, 0x00, 0x00,
  0x00, 0x00, 0x0e, 0x00, 0x18, 0x00, 0x04, 0x00, 0x08, 0x00, 0x0c, 0x00,
  0x10, 0x00, 0x14, 0x00, 0x0e, 0x00, 0x00, 0x00, 0xa8, 0x01, 0x00, 0x00,
  0x9c, 0x01, 0x00, 0x00, 0x90, 0x01, 0x00, 0x00, 0x14, 0x00, 0x00, 0x00,
  0x04, 0x00, 0x00, 0x00, 0x04, 0x00, 0x00, 0x00, 0x6d, 0x61, 0x69, 0x6e,
  0x00, 0x00, 0x00, 0x00, 0x05, 0x00, 0x00, 0x00, 0x30, 0x01, 0x00, 0x00,
  0xcc, 0x00, 0x00, 0x00, 0x94, 0x00, 0x00, 0x00, 0x50, 0x00, 0x00, 0x00,
  0x04, 0x00, 0x00, 0x00, 0x52, 0xff, 0xff, 0xff, 0x00, 0x00, 0x00, 0x09,
  0x04, 0x00, 0x00, 0x00, 0x24, 0x00, 0x00, 0x00, 0x18, 0x00, 0x00, 0x00,
  0x0c, 0x00, 0x00, 0x00, 0x00, 0x00, 0x06, 0x00, 0x08, 0x00, 0x04, 0x00,
  0x06, 0x00, 0x00, 0x00, 0x00, 0x00, 0x80, 0x3f, 0x01, 0x00, 0x00, 0x00,
  0x0a, 0x00, 0x00, 0x00, 0x01, 0x00, 0x00, 0x00, 0x09, 0x00, 0x00, 0x00,
  0x00, 0x00, 0x0e, 0x00, 0x18, 0x00, 0x08, 0x00, 0x0c, 0x00, 0x10, 0x00,
  0x07, 0x00, 0x14, 0x00, 0x0e, 0x00, 0x00, 0x00, 0x00, 0x00, 0x00, 0x08,
  0x03, 0x00, 0x00, 0x00, 0x18, 0x00, 0x00, 0x00, 0x0c, 0x00, 0x00, 0x00,
  0x04, 0x00, 0x00, 0x00, 0x10, 0xf9, 0xff, 0xff, 0x01, 0x00, 0x00, 0x00,
  0x09, 0x00, 0x00, 0x00, 0x03, 0x00, 0x00, 0x00, 0x08, 0x00, 0x00, 0x00,
  0x03, 0x00, 0x00, 0x00, 0x02, 0x00, 0x00, 0x00, 0x00, 0x00, 0x0a, 0x00,
  0x10, 0x00, 0x04, 0x00, 0x08, 0x00, 0x0c, 0x00, 0x0a, 0x00, 0x00, 0x00,
  0x02, 0x00, 0x00, 0x00, 0x10, 0x00, 0x00, 0x00, 0x04, 0x00, 0x00, 0x00,
  0x01, 0x00, 0x00, 0x00, 0x08, 0x00, 0x00, 0x00, 0x02, 0x00, 0x00, 0x00,
  0x07, 0x00, 0x00, 0x00, 0x01, 0x00, 0x00, 0x00, 0x00, 0x00, 0x0e, 0x00,
  0x1a, 0x00, 0x08, 0x00, 0x0c, 0x00, 0x10, 0x00, 0x07, 0x00, 0x14, 0x00,
  0x0e, 0x00, 0x00, 0x00, 0x00, 0x00, 0x00, 0x05, 0x01, 0x00, 0x00, 0x00,
  0x3c, 0x00, 0x00, 0x00, 0x30, 0x00, 0x00, 0x00, 0x14, 0x00, 0x00, 0x00,
  0x00, 0x00, 0x0e, 0x00, 0x18, 0x00, 0x07, 0x00, 0x08, 0x00, 0x0c, 0x00,
  0x10, 0x00, 0x14, 0x00, 0x0e, 0x00, 0x00, 0x00, 0x00, 0x00, 0x00, 0x01,
  0x01, 0x00, 0x00, 0x00, 0x0a, 0x00, 0x00, 0x00, 0x01, 0x00, 0x00, 0x00,
  0x0a, 0x00, 0x00, 0x00, 0x01, 0x00, 0x00, 0x00, 0x07, 0x00, 0x00, 0x00,
  0x01, 0x00, 0x00, 0x00, 0x06, 0x00, 0x00, 0x00, 0x00, 0x00, 0x0e, 0x00,
  0x16, 0x00, 0x00, 0x00, 0x08, 0x00, 0x0c, 0x00, 0x07, 0x00, 0x10, 0x00,
  0x0e, 0x00, 0x00, 0x00, 0x00, 0x00, 0x00, 0x01, 0x2c, 0x00, 0x00, 0x00,
  0x20, 0x00, 0x00, 0x00, 0x10, 0x00, 0x00, 0x00, 0x00, 0x00, 0x0a, 0x00,
  0x0c, 0x00, 0x00, 0x00, 0x04, 0x00, 0x08, 0x00, 0x0a, 0x00, 0x00, 0x00,
  0x01, 0x00, 0x00, 0x00, 0x01, 0x00, 0x00, 0x00, 0x01, 0x00, 0x00, 0x00,
  0x06, 0x00, 0x00, 0x00, 0x03, 0x00, 0x00, 0x00, 0x00, 0x00, 0x00, 0x00,
  0x04, 0x00, 0x00, 0x00, 0x05, 0x00, 0x00, 0x00, 0x01, 0x00, 0x00, 0x00,
  0x0a, 0x00, 0x00, 0x00, 0x01, 0x00, 0x00, 0x00, 0x00, 0x00, 0x00, 0x00,
  0x0b, 0x00, 0x00, 0x00, 0xc8, 0x05, 0x00, 0x00, 0x40, 0x05, 0x00, 0x00,
  0xc4, 0x04, 0x00, 0x00, 0x4c, 0x04, 0x00, 0x00, 0xcc, 0x03, 0x00, 0x00,
  0xcc, 0x02, 0x00, 0x00, 0xc0, 0x01, 0x00, 0x00, 0x30, 0x01, 0x00, 0x00,
  0xb4, 0x00, 0x00, 0x00, 0x3c, 0x00, 0x00, 0x00, 0x04, 0x00, 0x00, 0x00,
  0x72, 0xfa, 0xff, 0xff, 0x24, 0x00, 0x00, 0x00, 0x0b, 0x00, 0x00, 0x00,
  0x0c, 0x00, 0x00, 0x00, 0x04, 0x00, 0x00, 0x00, 0x64, 0xfa, 0xff, 0xff,
  0x08, 0x00, 0x00, 0x00, 0x49, 0x64, 0x65, 0x6e, 0x74, 0x69, 0x74, 0x79,
  0x00, 0x00, 0x00, 0x00, 0x02, 0x00, 0x00, 0x00, 0x01, 0x00, 0x00, 0x00,
  0x03, 0x00, 0x00, 0x00, 0xa6, 0xfa, 0xff, 0xff, 0x64, 0x00, 0x00, 0x00,
  0x0a, 0x00, 0x00, 0x00, 0x0c, 0x00, 0x00, 0x00, 0x04, 0x00, 0x00, 0x00,
  0x98, 0xfa, 0xff, 0xff, 0x4b, 0x00, 0x00, 0x00, 0x73, 0x65, 0x71, 0x75,
  0x65, 0x6e, 0x74, 0x69, 0x61, 0x6c, 0x2f, 0x6f, 0x75, 0x74, 0x70, 0x75,
  0x74, 0x2f, 0x42, 0x69, 0x61, 0x73, 0x41, 0x64, 0x64, 0x3b, 0x53, 0x74,
  0x61, 0x74, 0x65, 0x66, 0x75, 0x6c, 0x50, 0x61, 0x72, 0x74, 0x69, 0x74,
  0x69, 0x6f, 0x6e, 0x65, 0x64, 0x43, 0x61, 0x6c, 0x6c, 0x2f, 0x73, 0x65,
  0x71, 0x75, 0x65, 0x6e, 0x74, 0x69, 0x61, 0x6c, 0x2f, 0x6f, 0x75, 0x74,
  0x70, 0x75, 0x74, 0x2f, 0x42, 0x69, 0x61, 0x73, 0x41, 0x64, 0x64, 0x00,
  0x02, 0x00, 0x00, 0x00, 0x01, 0x00, 0x00, 0x00, 0x03, 0x00, 0x00, 0x00,
  0x1a, 0xfb, 0xff, 0xff, 0x68, 0x00, 0x00, 0x00, 0x09, 0x00, 0x00, 0x00,
  0x0c, 0x00, 0x00, 0x00, 0x04, 0x00, 0x00, 0x00, 0x0c, 0xfb, 0xff, 0xff,
  0x4d, 0x00, 0x00, 0x00, 0x73, 0x65, 0x71, 0x75, 0x65, 0x6e, 0x74, 0x69,
  0x61, 0x6c, 0x2f, 0x66, 0x6c, 0x61, 0x74, 0x74, 0x65, 0x6e, 0x2f, 0x52,
  0x65, 0x73, 0x68, 0x61, 0x70, 0x65, 0x3b, 0x53, 0x74, 0x61, 0x74, 0x65,
  0x66, 0x75, 0x6c, 0x50, 0x61, 0x72, 0x74, 0x69, 0x74, 0x69, 0x6f, 0x6e,
  0x65, 0x64, 0x43, 0x61, 0x6c, 0x6c, 0x2f, 0x73, 0x65, 0x71, 0x75, 0x65,
  0x6e, 0x74, 0x69, 0x61, 0x6c, 0x2f, 0x66, 0x6c, 0x61, 0x74, 0x74, 0x65,
  0x6e, 0x2f, 0x52, 0x65, 0x73, 0x68, 0x61, 0x70, 0x65, 0x00, 0x00, 0x00,
  0x02, 0x00, 0x00, 0x00, 0x01, 0x00, 0x00, 0x00, 0x4b, 0x00, 0x00, 0x00,
  0x92, 0xfb, 0xff, 0xff, 0x74, 0x00, 0x00, 0x00, 0x08, 0x00, 0x00, 0x00,
  0x0c, 0x00, 0x00, 0x00, 0x04, 0x00, 0x00, 0x00, 0x84, 0xfb, 0xff, 0xff,
  0x59, 0x00, 0x00, 0x00, 0x73, 0x65, 0x71, 0x75, 0x65, 0x6e, 0x74, 0x69,
  0x61, 0x6c, 0x2f, 0x6d, 0x61, 0x78, 0x5f, 0x70, 0x6f, 0x6f, 0x6c, 0x69,
  0x6e, 0x67, 0x32, 0x64, 0x2f, 0x4d, 0x61, 0x78, 0x50, 0x6f, 0x6f, 0x6c,
  0x3b, 0x53, 0x74, 0x61, 0x74, 0x65, 0x66, 0x75, 0x6c, 0x50, 0x61, 0x72,
  0x74, 0x69, 0x74, 0x69, 0x6f, 0x6e, 0x65, 0x64, 0x43, 0x61, 0x6c, 0x6c,
  0x2f, 0x73, 0x65, 0x71, 0x75, 0x65, 0x6e, 0x74, 0x69, 0x61, 0x6c, 0x2f,
  0x6d, 0x61, 0x78, 0x5f, 0x70, 0x6f, 0x6f, 0x6c, 0x69, 0x6e, 0x67, 0x32,
  0x64, 0x2f, 0x4d, 0x61, 0x78, 0x50, 0x6f, 0x6f, 0x6c, 0x00, 0x00, 0x00,
  0x04, 0x00, 0x00, 0x00, 0x01, 0x00, 0x00, 0x00, 0x01, 0x00, 0x00, 0x00,
  0x19, 0x00, 0x00, 0x00, 0x03, 0x00, 0x00, 0x00, 0x1e, 0xfc, 0xff, 0xff,
  0xf0, 0x00, 0x00, 0x00, 0x07, 0x00, 0x00, 0x00, 0x0c, 0x00, 0x00, 0x00,
  0x04, 0x00, 0x00, 0x00, 0x10, 0xfc, 0xff, 0xff, 0xd7, 0x00, 0x00, 0x00,
  0x73, 0x65, 0x71, 0x75, 0x65, 0x6e, 0x74, 0x69, 0x61, 0x6c, 0x2f, 0x63,
  0x6f, 0x6e, 0x76, 0x32, 0x64, 0x2f, 0x42, 0x69, 0x61, 0x73, 0x41, 0x64,
  0x64, 0x3b, 0x53, 0x74, 0x61, 0x74, 0x65, 0x66, 0x75, 0x6c, 0x50, 0x61,
  0x72, 0x74, 0x69, 0x74, 0x69, 0x6f, 0x6e, 0x65, 0x64, 0x43, 0x61, 0x6c,
  0x6c, 0x2f, 0x73, 0x65, 0x71, 0x75, 0x65, 0x6e, 0x74, 0x69, 0x61, 0x6c,
  0x2f, 0x63, 0x6f, 0x6e, 0x76, 0x32, 0x64, 0x2f, 0x42, 0x69, 0x61, 0x73,
  0x41, 0x64, 0x64, 0x3b, 0x73, 0x65, 0x71, 0x75, 0x65, 0x6e, 0x74, 0x69,
  0x61, 0x6c, 0x2f, 0x63, 0x6f, 0x6e, 0x76, 0x32, 0x64, 0x2f, 0x43, 0x6f,
  0x6e, 0x76, 0x32, 0x44, 0x3b, 0x53, 0x74, 0x61, 0x74, 0x65, 0x66, 0x75,
  0x6c, 0x50, 0x61, 0x72, 0x74, 0x69, 0x74, 0x69, 0x6f, 0x6e, 0x65, 0x64,
  0x43, 0x61, 0x6c, 0x6c, 0x2f, 0x73, 0x65, 0x71, 0x75, 0x65, 0x6e, 0x74,
  0x69, 0x61, 0x6c, 0x2f, 0x63, 0x6f, 0x6e, 0x76, 0x32, 0x64, 0x2f, 0x43,
  0x6f, 0x6e, 0x76, 0x32, 0x44, 0x3b, 0x53, 0x74, 0x61, 0x74, 0x65, 0x66,
  0x75, 0x6c, 0x50, 0x61, 0x72, 0x74, 0x69, 0x74, 0x69, 0x6f, 0x6e, 0x65,
  0x64, 0x43, 0x61, 0x6c, 0x6c, 0x2f, 0x73, 0x65, 0x71, 0x75, 0x65, 0x6e,
  0x74, 0x69, 0x61, 0x6c, 0x2f, 0x63, 0x6f, 0x6e, 0x76, 0x32, 0x64, 0x2f,
  0x42, 0x69, 0x61, 0x73, 0x41, 0x64, 0x64, 0x2f, 0x52, 0x65, 0x61, 0x64,
  0x56, 0x61, 0x72, 0x69, 0x61, 0x62, 0x6c, 0x65, 0x4f, 0x70, 0x31, 0x00,
  0x04, 0x00, 0x00, 0x00, 0x01, 0x00, 0x00, 0x00, 0x0a, 0x00, 0x00, 0x00,
  0x19, 0x00, 0x00, 0x00, 0x03, 0x00, 0x00, 0x00, 0x26, 0xfd, 0xff, 0xff,
  0xf0, 0x00, 0x00, 0x00, 0x06, 0x00, 0x00, 0x00, 0x0c, 0x00, 0x00, 0x00,
  0x04, 0x00, 0x00, 0x00, 0x18, 0xfd, 0xff, 0xff, 0xd6, 0x00, 0x00, 0x00,
  0x73, 0x65, 0x71, 0x75, 0x65, 0x6e, 0x74, 0x69, 0x61, 0x6c, 0x2f, 0x63,
  0x6f, 0x6e, 0x76, 0x32, 0x64, 0x2f, 0x42, 0x69, 0x61, 0x73, 0x41, 0x64,
  0x64, 0x3b, 0x53, 0x74, 0x61, 0x74, 0x65, 0x66, 0x75, 0x6c, 0x50, 0x61,
  0x72, 0x74, 0x69, 0x74, 0x69, 0x6f, 0x6e, 0x65, 0x64, 0x43, 0x61, 0x6c,
  0x6c, 0x2f, 0x73, 0x65, 0x71, 0x75, 0x65, 0x6e, 0x74, 0x69, 0x61, 0x6c,
  0x2f, 0x63, 0x6f, 0x6e, 0x76, 0x32, 0x64, 0x2f, 0x42, 0x69, 0x61, 0x73,
  0x41, 0x64, 0x64, 0x3b, 0x73, 0x65, 0x71, 0x75, 0x65, 0x6e, 0x74, 0x69,
  0x61, 0x6c, 0x2f, 0x63, 0x6f, 0x6e, 0x76, 0x32, 0x64, 0x2f, 0x43, 0x6f,
  0x6e, 0x76, 0x32, 0x44, 0x3b, 0x53, 0x74, 0x61, 0x74, 0x65, 0x66, 0x75,
  0x6c, 0x50, 0x61, 0x72, 0x74, 0x69, 0x74, 0x69, 0x6f, 0x6e, 0x65, 0x64,
  0x43, 0x61, 0x6c, 0x6c, 0x2f, 0x73, 0x65, 0x71, 0x75, 0x65, 0x6e, 0x74,
  0x69, 0x61, 0x6c, 0x2f, 0x63, 0x6f, 0x6e, 0x76, 0x32, 0x64, 0x2f, 0x43,
  0x6f, 0x6e, 0x76, 0x32, 0x44, 0x3b, 0x53, 0x74, 0x61, 0x74, 0x65, 0x66,
  0x75, 0x6c, 0x50, 0x61, 0x72, 0x74, 0x69, 0x74, 0x69, 0x6f, 0x6e, 0x65,
  0x64, 0x43, 0x61, 0x6c, 0x6c, 0x2f, 0x73, 0x65, 0x71, 0x75, 0x65, 0x6e,
  0x74, 0x69, 0x61, 0x6c, 0x2f, 0x63, 0x6f, 0x6e, 0x76, 0x32, 0x64, 0x2f,
  0x42, 0x69, 0x61, 0x73, 0x41, 0x64, 0x64, 0x2f, 0x52, 0x65, 0x61, 0x64,
  0x56, 0x61, 0x72, 0x69, 0x61, 0x62, 0x6c, 0x65, 0x4f, 0x70, 0x00, 0x00,
  0x01, 0x00, 0x00, 0x00, 0x03, 0x00, 0x00, 0x00, 0x22, 0xfe, 0xff, 0xff,
  0x64, 0x00, 0x00, 0x00, 0x05, 0x00, 0x00, 0x00, 0x0c, 0x00, 0x00, 0x00,
  0x04, 0x00, 0x00, 0x00, 0x14, 0xfe, 0xff, 0xff, 0x49, 0x00, 0x00, 0x00,
  0x73, 0x65, 0x71, 0x75, 0x65, 0x6e, 0x74, 0x69, 0x61, 0x6c, 0x2f, 0x63,
  0x6f, 0x6e, 0x76, 0x32, 0x64, 0x2f, 0x43, 0x6f, 0x6e, 0x76, 0x32, 0x44,
  0x3b, 0x53, 0x74, 0x61, 0x74, 0x65, 0x66, 0x75, 0x6c, 0x50, 0x61, 0x72,
  0x74, 0x69, 0x74, 0x69, 0x6f, 0x6e, 0x65, 0x64, 0x43, 0x61, 0x6c, 0x6c,
  0x2f, 0x73, 0x65, 0x71, 0x75, 0x65, 0x6e, 0x74, 0x69, 0x61, 0x6c, 0x2f,
  0x63, 0x6f, 0x6e, 0x76, 0x32, 0x64, 0x2f, 0x43, 0x6f, 0x6e, 0x76, 0x32,
  0x44, 0x00, 0x00, 0x00, 0x04, 0x00, 0x00, 0x00, 0x03, 0x00, 0x00, 0x00,
  0x03, 0x00, 0x00, 0x00, 0x19, 0x00, 0x00, 0x00, 0x02, 0x00, 0x00, 0x00,
  0x9e, 0xfe, 0xff, 0xff, 0x64, 0x00, 0x00, 0x00, 0x04, 0x00, 0x00, 0x00,
  0x0c, 0x00, 0x00, 0x00, 0x04, 0x00, 0x00, 0x00, 0x90, 0xfe, 0xff, 0xff,
  0x49, 0x00, 0x00, 0x00, 0x73, 0x65, 0x71, 0x75, 0x65, 0x6e, 0x74, 0x69,
  0x61, 0x6c, 0x2f, 0x6f, 0x75, 0x74, 0x70, 0x75, 0x74, 0x2f, 0x4d, 0x61,
  0x74, 0x4d, 0x75, 0x6c, 0x3b, 0x53, 0x74, 0x61, 0x74, 0x65, 0x66, 0x75,
  0x6c, 0x50, 0x61, 0x72, 0x74, 0x69, 0x74, 0x69, 0x6f, 0x6e, 0x65, 0x64,
  0x43, 0x61, 0x6c, 0x6c, 0x2f, 0x73, 0x65, 0x71, 0x75, 0x65, 0x6e, 0x74,
  0x69, 0x61, 0x6c, 0x2f, 0x6f, 0x75, 0x74, 0x70, 0x75, 0x74, 0x2f, 0x4d,
  0x61, 0x74, 0x4d, 0x75, 0x6c, 0x00, 0x00, 0x00, 0x02, 0x00, 0x00, 0x00,
  0x03, 0x00, 0x00, 0x00, 0x4b, 0x00, 0x00, 0x00, 0x12, 0xff, 0xff, 0xff,
  0x5c, 0x00, 0x00, 0x00, 0x03, 0x00, 0x00, 0x00, 0x0c, 0x00, 0x00, 0x00,
  0x04, 0x00, 0x00, 0x00, 0x04, 0xff, 0xff, 0xff, 0x40, 0x00, 0x00, 0x00,
  0x53, 0x74, 0x61, 0x74, 0x65, 0x66, 0x75, 0x6c, 0x50, 0x61, 0x72, 0x74,
  0x69, 0x74, 0x69, 0x6f, 0x6e, 0x65, 0x64, 0x43, 0x61, 0x6c, 0x6c, 0x2f,
  0x73, 0x65, 0x71, 0x75, 0x65, 0x6e, 0x74, 0x69, 0x61, 0x6c, 0x2f, 0x6f,
  0x75, 0x74, 0x70, 0x75, 0x74, 0x2f, 0x42, 0x69, 0x61, 0x73, 0x41, 0x64,
  0x64, 0x2f, 0x52, 0x65, 0x61, 0x64, 0x56, 0x61, 0x72, 0x69, 0x61, 0x62,
  0x6c, 0x65, 0x4f, 0x70, 0x00, 0x00, 0x00, 0x00, 0x01, 0x00, 0x00, 0x00,
  0x03, 0x00, 0x00, 0x00, 0x00, 0x00, 0x0e, 0x00, 0x18, 0x00, 0x08, 0x00,
  0x07, 0x00, 0x0c, 0x00, 0x10, 0x00, 0x14, 0x00, 0x0e, 0x00, 0x00, 0x00,
  0x00, 0x00, 0x00, 0x02, 0x64, 0x00, 0x00, 0x00, 0x02, 0x00, 0x00, 0x00,
  0x0c, 0x00, 0x00, 0x00, 0x04, 0x00, 0x00, 0x00, 0x80, 0xff, 0xff, 0xff,
  0x49, 0x00, 0x00, 0x00, 0x73, 0x65, 0x71, 0x75, 0x65, 0x6e, 0x74, 0x69,
  0x61, 0x6c, 0x2f, 0x66, 0x6c, 0x61, 0x74, 0x74, 0x65, 0x6e, 0x2f, 0x43,
  0x6f, 0x6e, 0x73, 0x74, 0x3b, 0x53, 0x74, 0x61, 0x74, 0x65, 0x66, 0x75,
  0x6c, 0x50, 0x61, 0x72, 0x74, 0x69, 0x74, 0x69, 0x6f, 0x6e, 0x65, 0x64,
  0x43, 0x61, 0x6c, 0x6c, 0x2f, 0x73, 0x65, 0x71, 0x75, 0x65, 0x6e, 0x74,
  0x69, 0x61, 0x6c, 0x2f, 0x66, 0x6c, 0x61, 0x74, 0x74, 0x65, 0x6e, 0x2f,
  0x43, 0x6f, 0x6e, 0x73, 0x74, 0x00, 0x00, 0x00, 0x01, 0x00, 0x00, 0x00,
  0x02, 0x00, 0x00, 0x00, 0x00, 0x00, 0x0e, 0x00, 0x14, 0x00, 0x04, 0x00,
  0x00, 0x00, 0x08, 0x00, 0x0c, 0x00, 0x10, 0x00, 0x0e, 0x00, 0x00, 0x00,
  0x20, 0x00, 0x00, 0x00, 0x01, 0x00, 0x00, 0x00, 0x10, 0x00, 0x00, 0x00,
  0x08, 0x00, 0x00, 0x00, 0x04, 0x00, 0x04, 0x00, 0x04, 0x00, 0x00, 0x00,
  0x01, 0x00, 0x00, 0x00, 0x78, 0x00, 0x00, 0x00, 0x04, 0x00, 0x00, 0x00,
  0x01, 0x00, 0x00, 0x00, 0x0a, 0x00, 0x00, 0x00, 0x19, 0x00, 0x00, 0x00,
  0x02, 0x00, 0x00, 0x00, 0x05, 0x00, 0x00, 0x00, 0x4c, 0x00, 0x00, 0x00,
  0x38, 0x00, 0x00, 0x00, 0x28, 0x00, 0x00, 0x00, 0x18, 0x00, 0x00, 0x00,
  0x0c, 0x00, 0x00, 0x00, 0x00, 0x00, 0x06, 0x00, 0x08, 0x00, 0x07, 0x00,
  0x06, 0x00, 0x00, 0x00, 0x00, 0x00, 0x00, 0x19, 0xe2, 0xff, 0xff, 0xff,
  0x00, 0x00, 0x00, 0x09, 0x03, 0x00, 0x00, 0x00, 0xfa, 0xff, 0xff, 0xff,
  0x00, 0x16, 0x06, 0x00, 0x06, 0x00, 0x05, 0x00, 0x06, 0x00, 0x00, 0x00,
  0x00, 0x11, 0x0a, 0x00, 0x0c, 0x00, 0x07, 0x00, 0x00, 0x00, 0x08, 0x00,
  0x0a, 0x00, 0x00, 0x00, 0x00, 0x00, 0x00, 0x03, 0x02, 0x00, 0x00, 0x00
};
unsigned int __ml_dataset_model_tflite_len = 5232;
