unsigned char __ml_dataset_model_tflite[] = {
  0x1c, 0x00, 0x00, 0x00, 0x54, 0x46, 0x4c, 0x33, 0x00, 0x00, 0x12, 0x00,
  0x1c, 0x00, 0x04, 0x00, 0x08, 0x00, 0x0c, 0x00, 0x10, 0x00, 0x14, 0x00,
  0x00, 0x00, 0x18, 0x00, 0x12, 0x00, 0x00, 0x00, 0x03, 0x00, 0x00, 0x00,
  0x54, 0x00, 0x00, 0x00, 0x48, 0x00, 0x00, 0x00, 0xb4, 0x00, 0x00, 0x00,
  0x08, 0x00, 0x00, 0x00, 0x5c, 0x00, 0x00, 0x00, 0x0d, 0x00, 0x00, 0x00,
  0xac, 0x13, 0x00, 0x00, 0xa8, 0x13, 0x00, 0x00, 0xc0, 0x12, 0x00, 0x00,
  0x34, 0x12, 0x00, 0x00, 0x2c, 0x0e, 0x00, 0x00, 0x98, 0x06, 0x00, 0x00,
  0x80, 0x05, 0x00, 0x00, 0x90, 0x13, 0x00, 0x00, 0x8c, 0x13, 0x00, 0x00,
  0x88, 0x13, 0x00, 0x00, 0x84, 0x13, 0x00, 0x00, 0x80, 0x13, 0x00, 0x00,
  0x58, 0x00, 0x00, 0x00, 0x01, 0x00, 0x00, 0x00, 0x90, 0x00, 0x00, 0x00,
  0x05, 0x00, 0x00, 0x00, 0x44, 0x04, 0x00, 0x00, 0x48, 0x03, 0x00, 0x00,
  0x60, 0x02, 0x00, 0x00, 0xac, 0x01, 0x00, 0x00, 0x24, 0x01, 0x00, 0x00,
  0x01, 0x00, 0x00, 0x00, 0x0c, 0x00, 0x00, 0x00, 0x08, 0x00, 0x0c, 0x00,
  0x04, 0x00, 0x08, 0x00, 0x08, 0x00, 0x00, 0x00, 0x08, 0x00, 0x00, 0x00,
  0x0c, 0x00, 0x00, 0x00, 0x13, 0x00, 0x00, 0x00, 0x6d, 0x69, 0x6e, 0x5f,
  0x72, 0x75, 0x6e, 0x74, 0x69, 0x6d, 0x65, 0x5f, 0x76, 0x65, 0x72, 0x73,
  0x69, 0x6f, 0x6e, 0x00, 0xc6, 0xed, 0xff, 0xff, 0x04, 0x00, 0x00, 0x00,
  0x10, 0x00, 0x00, 0x00, 0x31, 0x2e, 0x35, 0x2e, 0x30, 0x00, 0x00, 0x00,
  0x00, 0x00, 0x00, 0x00, 0x00, 0x00, 0x00, 0x00, 0x0f, 0x00, 0x00, 0x00,
  0x4d, 0x4c, 0x49, 0x52, 0x20, 0x43, 0x6f, 0x6e, 0x76, 0x65, 0x72, 0x74,
  0x65, 0x64, 0x2e, 0x00, 0x00, 0x00, 0x0e, 0x00, 0x18, 0x00, 0x04, 0x00,
  0x08, 0x00, 0x0c, 0x00, 0x10, 0x00, 0x14, 0x00, 0x0e, 0x00, 0x00, 0x00,
  0x48, 0x00, 0x00, 0x00, 0x3c, 0x00, 0x00, 0x00, 0x30, 0x00, 0x00, 0x00,
  0x14, 0x00, 0x00, 0x00, 0x04, 0x00, 0x00, 0x00, 0x04, 0x00, 0x00, 0x00,
  0x6d, 0x61, 0x69, 0x6e, 0x00, 0x00, 0x00, 0x00, 0x05, 0x00, 0x00, 0x00,
  0x44, 0x03, 0x00, 0x00, 0x48, 0x02, 0x00, 0x00, 0x8c, 0x01, 0x00, 0x00,
  0xc8, 0x00, 0x00, 0x00, 0x44, 0x00, 0x00, 0x00, 0x01, 0x00, 0x00, 0x00,
  0x0a, 0x00, 0x00, 0x00, 0x01, 0x00, 0x00, 0x00, 0x00, 0x00, 0x00, 0x00,
  0x0b, 0x00, 0x00, 0x00, 0x5c, 0x12, 0x00, 0x00, 0xd0, 0x11, 0x00, 0x00,
  0x38, 0x11, 0x00, 0x00, 0xa8, 0x10, 0x00, 0x00, 0x98, 0x0c, 0x00, 0x00,
  0x84, 0x04, 0x00, 0x00, 0x60, 0x03, 0x00, 0x00, 0x64, 0x02, 0x00, 0x00,
  0x7c, 0x01, 0x00, 0x00, 0xc8, 0x00, 0x00, 0x00, 0x40, 0x00, 0x00, 0x00,
  0x8e, 0xff, 0xff, 0xff, 0x00, 0x00, 0x00, 0x09, 0x04, 0x00, 0x00, 0x00,
  0x1c, 0x00, 0x00, 0x00, 0x10, 0x00, 0x00, 0x00, 0x04, 0x00, 0x00, 0x00,
  0x9a, 0xee, 0xff, 0xff, 0x00, 0x00, 0x80, 0x3f, 0x01, 0x00, 0x00, 0x00,
  0x0a, 0x00, 0x00, 0x00, 0x01, 0x00, 0x00, 0x00, 0x09, 0x00, 0x00, 0x00,
  0xfa, 0xfc, 0xff, 0xff, 0x00, 0x00, 0x00, 0x19, 0x01, 0x00, 0x00, 0x00,
  0x1a, 0xee, 0xff, 0xff, 0x20, 0x00, 0x00, 0x00, 0x0b, 0x00, 0x00, 0x00,
  0x08, 0x00, 0x00, 0x00, 0x20, 0x00, 0x00, 0x00, 0x08, 0x00, 0x00, 0x00,
  0x49, 0x64, 0x65, 0x6e, 0x74, 0x69, 0x74, 0x79, 0x00, 0x00, 0x00, 0x00,
  0x02, 0x00, 0x00, 0x00, 0x01, 0x00, 0x00, 0x00, 0x03, 0x00, 0x00, 0x00,
  0x54, 0xee, 0xff, 0xff, 0x00, 0x00, 0x0e, 0x00, 0x18, 0x00, 0x08, 0x00,
  0x0c, 0x00, 0x10, 0x00, 0x07, 0x00, 0x14, 0x00, 0x0e, 0x00, 0x00, 0x00,
  0x00, 0x00, 0x00, 0x08, 0x03, 0x00, 0x00, 0x00, 0x18, 0x00, 0x00, 0x00,
  0x0c, 0x00, 0x00, 0x00, 0x04, 0x00, 0x00, 0x00, 0x34, 0xee, 0xff, 0xff,
  0x01, 0x00, 0x00, 0x00, 0x09, 0x00, 0x00, 0x00, 0x03, 0x00, 0x00, 0x00,
  0x08, 0x00, 0x00, 0x00, 0x03, 0x00, 0x00, 0x00, 0x02, 0x00, 0x00, 0x00,
  0x7e, 0xfd, 0xff, 0xff, 0x00, 0x00, 0x00, 0x09, 0x01, 0x00, 0x00, 0x00,
  0x9e, 0xee, 0xff, 0xff, 0x60, 0x00, 0x00, 0x00, 0x0a, 0x00, 0x00, 0x00,
  0x08, 0x00, 0x00, 0x00, 0x60, 0x00, 0x00, 0x00, 0x4b, 0x00, 0x00, 0x00,
  0x73, 0x65, 0x71, 0x75, 0x65, 0x6e, 0x74, 0x69, 0x61, 0x6c, 0x2f, 0x6f,
  0x75, 0x74, 0x70, 0x75, 0x74, 0x2f, 0x42, 0x69, 0x61, 0x73, 0x41, 0x64,
  0x64, 0x3b, 0x53, 0x74, 0x61, 0x74, 0x65, 0x66, 0x75, 0x6c, 0x50, 0x61,
  0x72, 0x74, 0x69, 0x74, 0x69, 0x6f, 0x6e, 0x65, 0x64, 0x43, 0x61, 0x6c,
  0x6c, 0x2f, 0x73, 0x65, 0x71, 0x75, 0x65, 0x6e, 0x74, 0x69, 0x61, 0x6c,
  0x2f, 0x6f, 0x75, 0x74, 0x70, 0x75, 0x74, 0x2f, 0x42, 0x69, 0x61, 0x73,
  0x41, 0x64, 0x64, 0x00, 0x02, 0x00, 0x00, 0x00, 0x01, 0x00, 0x00, 0x00,
  0x03, 0x00, 0x00, 0x00, 0x18, 0xef, 0xff, 0xff, 0x00, 0x00, 0x0a, 0x00,
  0x10, 0x00, 0x04, 0x00, 0x08, 0x00, 0x0c, 0x00, 0x0a, 0x00, 0x00, 0x00,
  0x02, 0x00, 0x00, 0x00, 0x10, 0x00, 0x00, 0x00, 0x04, 0x00, 0x00, 0x00,
  0x01, 0x00, 0x00, 0x00, 0x08, 0x00, 0x00, 0x00, 0x02, 0x00, 0x00, 0x00,
  0x07, 0x00, 0x00, 0x00, 0x01, 0x00, 0x00, 0x00, 0x2e, 0xfe, 0xff, 0xff,
  0x00, 0x00, 0x00, 0x16, 0x01, 0x00, 0x00, 0x00, 0x4e, 0xef, 0xff, 0xff,
  0x64, 0x00, 0x00, 0x00, 0x09, 0x00, 0x00, 0x00, 0x08, 0x00, 0x00, 0x00,
  0x64, 0x00, 0x00, 0x00, 0x4d, 0x00, 0x00, 0x00, 0x73, 0x65, 0x71, 0x75,
  0x65, 0x6e, 0x74, 0x69, 0x61, 0x6c, 0x2f, 0x66, 0x6c, 0x61, 0x74, 0x74,
  0x65, 0x6e, 0x2f, 0x52, 0x65, 0x73, 0x68, 0x61, 0x70, 0x65, 0x3b, 0x53,
  0x74, 0x61, 0x74, 0x65, 0x66, 0x75, 0x6c, 0x50, 0x61, 0x72, 0x74, 0x69,
  0x74, 0x69, 0x6f, 0x6e, 0x65, 0x64, 0x43, 0x61, 0x6c, 0x6c, 0x2f, 0x73,
  0x65, 0x71, 0x75, 0x65, 0x6e, 0x74, 0x69, 0x61, 0x6c, 0x2f, 0x66, 0x6c,
  0x61, 0x74, 0x74, 0x65, 0x6e, 0x2f, 0x52, 0x65, 0x73, 0x68, 0x61, 0x70,
  0x65, 0x00, 0x00, 0x00, 0x02, 0x00, 0x00, 0x00, 0x01, 0x00, 0x00, 0x00,
  0x4b, 0x00, 0x00, 0x00, 0xcc, 0xef, 0xff, 0xff, 0x00, 0x00, 0x0e, 0x00,
  0x1a, 0x00, 0x08, 0x00, 0x0c, 0x00, 0x10, 0x00, 0x07, 0x00, 0x14, 0x00,
  0x0e, 0x00, 0x00, 0x00, 0x00, 0x00, 0x00, 0x05, 0x01, 0x00, 0x00, 0x00,
  0x3c, 0x00, 0x00, 0x00, 0x30, 0x00, 0x00, 0x00, 0x14, 0x00, 0x00, 0x00,
  0x00, 0x00, 0x0e, 0x00, 0x18, 0x00, 0x17, 0x00, 0x10, 0x00, 0x0c, 0x00,
  0x08, 0x00, 0x04, 0x00, 0x0e, 0x00, 0x00, 0x00, 0x03, 0x00, 0x00, 0x00,
  0x01, 0x00, 0x00, 0x00, 0x03, 0x00, 0x00, 0x00, 0x01, 0x00, 0x00, 0x00,
  0x00, 0x00, 0x00, 0x01, 0x01, 0x00, 0x00, 0x00, 0x07, 0x00, 0x00, 0x00,
  0x01, 0x00, 0x00, 0x00, 0x06, 0x00, 0x00, 0x00, 0x12, 0xff, 0xff, 0xff,
  0x00, 0x00, 0x00, 0x11, 0x01, 0x00, 0x00, 0x00, 0x32, 0xf0, 0xff, 0xff,
  0x70, 0x00, 0x00, 0x00, 0x08, 0x00, 0x00, 0x00, 0x08, 0x00, 0x00, 0x00,
  0x78, 0x00, 0x00, 0x00, 0x59, 0x00, 0x00, 0x00, 0x73, 0x65, 0x71, 0x75,
  0x65, 0x6e, 0x74, 0x69, 0x61, 0x6c, 0x2f, 0x6d, 0x61, 0x78, 0x5f, 0x70,
  0x6f, 0x6f, 0x6c, 0x69, 0x6e, 0x67, 0x32, 0x64, 0x2f, 0x4d, 0x61, 0x78,
  0x50, 0x6f, 0x6f, 0x6c, 0x3b, 0x53, 0x74, 0x61, 0x74, 0x65, 0x66, 0x75,
  0x6c, 0x50, 0x61, 0x72, 0x74, 0x69, 0x74, 0x69, 0x6f, 0x6e, 0x65, 0x64,
  0x43, 0x61, 0x6c, 0x6c, 0x2f, 0x73, 0x65, 0x71, 0x75, 0x65, 0x6e, 0x74,
  0x69, 0x61, 0x6c, 0x2f, 0x6d, 0x61, 0x78, 0x5f, 0x70, 0x6f, 0x6f, 0x6c,
  0x69, 0x6e, 0x67, 0x32, 0x64, 0x2f, 0x4d, 0x61, 0x78, 0x50, 0x6f, 0x6f,
  0x6c, 0x00, 0x00, 0x00, 0x04, 0x00, 0x00, 0x00, 0x01, 0x00, 0x00, 0x00,
  0x01, 0x00, 0x00, 0x00, 0x19, 0x00, 0x00, 0x00, 0x03, 0x00, 0x00, 0x00,
  0xc4, 0xf0, 0xff, 0xff, 0x00, 0x00, 0x0e, 0x00, 0x16, 0x00, 0x00, 0x00,
  0x08, 0x00, 0x0c, 0x00, 0x07, 0x00, 0x10, 0x00, 0x0e, 0x00, 0x00, 0x00,
  0x00, 0x00, 0x00, 0x01, 0x2c, 0x00, 0x00, 0x00, 0x20, 0x00, 0x00, 0x00,
  0x10, 0x00, 0x00, 0x00, 0x00, 0x00, 0x0a, 0x00, 0x0c, 0x00, 0x00, 0x00,
  0x04, 0x00, 0x08, 0x00, 0x0a, 0x00, 0x00, 0x00, 0x01, 0x00, 0x00, 0x00,
  0x01, 0x00, 0x00, 0x00, 0x01, 0x00, 0x00, 0x00, 0x06, 0x00, 0x00, 0x00,
  0x03, 0x00, 0x00, 0x00, 0x00, 0x00, 0x00, 0x00, 0x04, 0x00, 0x00, 0x00,
  0x05, 0x00, 0x00, 0x00, 0x00, 0x00, 0x0a, 0x00, 0x0c, 0x00, 0x07, 0x00,
  0x00, 0x00, 0x08, 0x00, 0x0a, 0x00, 0x00, 0x00, 0x00, 0x00, 0x00, 0x03,
  0x01, 0x00, 0x00, 0x00, 0x2a, 0xf1, 0xff, 0xff, 0xec, 0x00, 0x00, 0x00,
  0x07, 0x00, 0x00, 0x00, 0x08, 0x00, 0x00, 0x00, 0xf4, 0x00, 0x00, 0x00,
  0xd7, 0x00, 0x00, 0x00, 0x73, 0x65, 0x71, 0x75, 0x65, 0x6e, 0x74, 0x69,
  0x61, 0x6c, 0x2f, 0x63, 0x6f, 0x6e, 0x76, 0x32, 0x64, 0x2f, 0x42, 0x69,
  0x61, 0x73, 0x41, 0x64, 0x64, 0x3b, 0x53, 0x74, 0x61, 0x74, 0x65, 0x66,
  0x75, 0x6c, 0x50, 0x61, 0x72, 0x74, 0x69, 0x74, 0x69, 0x6f, 0x6e, 0x65,
  0x64, 0x43, 0x61, 0x6c, 0x6c, 0x2f, 0x73, 0x65, 0x71, 0x75, 0x65, 0x6e,
  0x74, 0x69, 0x61, 0x6c, 0x2f, 0x63, 0x6f, 0x6e, 0x76, 0x32, 0x64, 0x2f,
  0x42, 0x69, 0x61, 0x73, 0x41, 0x64, 0x64, 0x3b, 0x73, 0x65, 0x71, 0x75,
  0x65, 0x6e, 0x74, 0x69, 0x61, 0x6c, 0x2f, 0x63, 0x6f, 0x6e, 0x76, 0x32,
  0x64, 0x2f, 0x43, 0x6f, 0x6e, 0x76, 0x32, 0x44, 0x3b, 0x53, 0x74, 0x61,
  0x74, 0x65, 0x66, 0x75, 0x6c, 0x50, 0x61, 0x72, 0x74, 0x69, 0x74, 0x69,
  0x6f, 0x6e, 0x65, 0x64, 0x43, 0x61, 0x6c, 0x6c, 0x2f, 0x73, 0x65, 0x71,
  0x75, 0x65, 0x6e, 0x74, 0x69, 0x61, 0x6c, 0x2f, 0x63, 0x6f, 0x6e, 0x76,
  0x32, 0x64, 0x2f, 0x43, 0x6f, 0x6e, 0x76, 0x32, 0x44, 0x3b, 0x53, 0x74,
  0x61, 0x74, 0x65, 0x66, 0x75, 0x6c, 0x50, 0x61, 0x72, 0x74, 0x69, 0x74,
  0x69, 0x6f, 0x6e, 0x65, 0x64, 0x43, 0x61, 0x6c, 0x6c, 0x2f, 0x73, 0x65,
  0x71, 0x75, 0x65, 0x6e, 0x74, 0x69, 0x61, 0x6c, 0x2f, 0x63, 0x6f, 0x6e,
  0x76, 0x32, 0x64, 0x2f, 0x42, 0x69, 0x61, 0x73, 0x41, 0x64, 0x64, 0x2f,
  0x52, 0x65, 0x61, 0x64, 0x56, 0x61, 0x72, 0x69, 0x61, 0x62, 0x6c, 0x65,
  0x4f, 0x70, 0x31, 0x00, 0x04, 0x00, 0x00, 0x00, 0x01, 0x00, 0x00, 0x00,
  0x03, 0x00, 0x00, 0x00, 0x19, 0x00, 0x00, 0x00, 0x03, 0x00, 0x00, 0x00,
  0xec, 0xf1, 0xff, 0xff, 0xd6, 0xf2, 0xff, 0xff, 0x04, 0x00, 0x00, 0x00,
  0x0c, 0x00, 0x00, 0x00, 0xef, 0xf3, 0x3a, 0xbd, 0xd5, 0x2c, 0x95, 0x3d,
  0x13, 0x23, 0x97, 0x3d, 0x4a, 0xf2, 0xff, 0xff, 0xec, 0x00, 0x00, 0x00,
  0x06, 0x00, 0x00, 0x00, 0x08, 0x00, 0x00, 0x00, 0xe8, 0x00, 0x00, 0x00,
  0xd6, 0x00, 0x00, 0x00, 0x73, 0x65, 0x71, 0x75, 0x65, 0x6e, 0x74, 0x69,
  0x61, 0x6c, 0x2f, 0x63, 0x6f, 0x6e, 0x76, 0x32, 0x64, 0x2f, 0x42, 0x69,
  0x61, 0x73, 0x41, 0x64, 0x64, 0x3b, 0x53, 0x74, 0x61, 0x74, 0x65, 0x66,
  0x75, 0x6c, 0x50, 0x61, 0x72, 0x74, 0x69, 0x74, 0x69, 0x6f, 0x6e, 0x65,
  0x64, 0x43, 0x61, 0x6c, 0x6c, 0x2f, 0x73, 0x65, 0x71, 0x75, 0x65, 0x6e,
  0x74, 0x69, 0x61, 0x6c, 0x2f, 0x63, 0x6f, 0x6e, 0x76, 0x32, 0x64, 0x2f,
  0x42, 0x69, 0x61, 0x73, 0x41, 0x64, 0x64, 0x3b, 0x73, 0x65, 0x71, 0x75,
  0x65, 0x6e, 0x74, 0x69, 0x61, 0x6c, 0x2f, 0x63, 0x6f, 0x6e, 0x76, 0x32,
  0x64, 0x2f, 0x43, 0x6f, 0x6e, 0x76, 0x32, 0x44, 0x3b, 0x53, 0x74, 0x61,
  0x74, 0x65, 0x66, 0x75, 0x6c, 0x50, 0x61, 0x72, 0x74, 0x69, 0x74, 0x69,
  0x6f, 0x6e, 0x65, 0x64, 0x43, 0x61, 0x6c, 0x6c, 0x2f, 0x73, 0x65, 0x71,
  0x75, 0x65, 0x6e, 0x74, 0x69, 0x61, 0x6c, 0x2f, 0x63, 0x6f, 0x6e, 0x76,
  0x32, 0x64, 0x2f, 0x43, 0x6f, 0x6e, 0x76, 0x32, 0x44, 0x3b, 0x53, 0x74,
  0x61, 0x74, 0x65, 0x66, 0x75, 0x6c, 0x50, 0x61, 0x72, 0x74, 0x69, 0x74,
  0x69, 0x6f, 0x6e, 0x65, 0x64, 0x43, 0x61, 0x6c, 0x6c, 0x2f, 0x73, 0x65,
  0x71, 0x75, 0x65, 0x6e, 0x74, 0x69, 0x61, 0x6c, 0x2f, 0x63, 0x6f, 0x6e,
  0x76, 0x32, 0x64, 0x2f, 0x42, 0x69, 0x61, 0x73, 0x41, 0x64, 0x64, 0x2f,
  0x52, 0x65, 0x61, 0x64, 0x56, 0x61, 0x72, 0x69, 0x61, 0x62, 0x6c, 0x65,
  0x4f, 0x70, 0x00, 0x00, 0x01, 0x00, 0x00, 0x00, 0x03, 0x00, 0x00, 0x00,
  0x00, 0xf3, 0xff, 0xff, 0xea, 0xf3, 0xff, 0xff, 0x04, 0x00, 0x00, 0x00,
  0x08, 0x07, 0x00, 0x00, 0x1f, 0x2f, 0x07, 0xbe, 0x30, 0x05, 0x29, 0xbf,
  0x05, 0x77, 0xcd, 0xbe, 0xdc, 0x1d, 0x8f, 0x3e, 0x88, 0x13, 0x8d, 0x3e,
  0xe5, 0x9c, 0xe1, 0x3e, 0x5b, 0x9c, 0x13, 0x3d, 0x7a, 0x6b, 0x5a, 0x3e,
  0xd0, 0xb6, 0xa1, 0x3e, 0x94, 0xe1, 0x30, 0x3d, 0x5e, 0xa1, 0xca, 0x3d,
  0xf6, 0xf1, 0xa9, 0xbe, 0x56, 0xfc, 0xd1, 0xbe, 0x6d, 0x81, 0x91, 0xbe,
  0x72, 0xeb, 0x1d, 0x3f, 0x73, 0x76, 0x13, 0xbd, 0x70, 0x42, 0x69, 0x3e,
  0xa5, 0xd3, 0xf1, 0xbe, 0xdc, 0x2e, 0x91, 0xbe, 0x69, 0xec, 0x7b, 0x3e,
  0x02, 0xfc, 0xee, 0x3b, 0x51, 0x58, 0x34, 0xbd, 0xd4, 0x07, 0xad, 0x3e,
  0xb0, 0xc9, 0x57, 0x3d, 0x74, 0xc1, 0x21, 0x3f, 0x66, 0x22, 0xd3, 0x3e,
  0xb9, 0xec, 0x27, 0xbe, 0x7b, 0x13, 0x18, 0xbe, 0x82, 0x12, 0x7d, 0xbe,
  0xb1, 0xa3, 0xef, 0x3e, 0x04, 0x53, 0x93, 0x3e, 0x26, 0x05, 0x44, 0x3f,
  0xf1, 0xd8, 0x90, 0xbd, 0x4b, 0x56, 0xd5, 0xbd, 0x38, 0xb2, 0x64, 0xbe,
  0x86, 0xde, 0xb1, 0xbe, 0x9a, 0x3b, 0x3d, 0xbe, 0xd7, 0x40, 0xb4, 0x3e,
  0x22, 0x3c, 0x0d, 0xbe, 0x7d, 0xe2, 0xbe, 0x3e, 0x16, 0x6f, 0x03, 0x3e,
  0x57, 0x62, 0x33, 0x3d, 0xae, 0x0c, 0x71, 0xbd, 0xac, 0xed, 0xe6, 0x3e,
  0xa0, 0x41, 0x88, 0xbe, 0x9a, 0x07, 0xef, 0x3d, 0x3e, 0x49, 0x02, 0xbf,
  0x6e, 0xec, 0xbb, 0x3e, 0x9e, 0x60, 0x21, 0xbf, 0xab, 0xf7, 0xdc, 0x3e,
  0x91, 0x42, 0x6c, 0xbc, 0x40, 0x71, 0xa2, 0xbe, 0xd4, 0x71, 0x98, 0x3d,
  0x2f, 0x38, 0x46, 0x3e, 0xfd, 0xb4, 0x2c, 0xbf, 0x8f, 0x79, 0x05, 0x3e,
  0x54, 0xd9, 0xb2, 0x3e, 0xd1, 0x27, 0xd5, 0x3e, 0x25, 0x3e, 0x6d, 0x3e,
  0x96, 0x2e, 0x98, 0xbe, 0xfc, 0x15, 0x72, 0x3e, 0x83, 0x0b, 0xe5, 0xba,
  0x6e, 0x5b, 0x88, 0x3c, 0x2e, 0xd7, 0xdc, 0xbe, 0x35, 0x93, 0x5e, 0xbd,
  0x7a, 0x09, 0x9f, 0x3d, 0x6e, 0xe2, 0x0b, 0x3f, 0x77, 0xfe, 0x73, 0xbe,
  0x02, 0x40, 0xa8, 0x3e, 0x31, 0x97, 0x71, 0x3e, 0x34, 0x8f, 0xd9, 0x3e,
  0x90, 0x11, 0x5e, 0xbe, 0x7a, 0xfb, 0x67, 0xbc, 0x39, 0xf1, 0x83, 0xbe,
  0x5f, 0xfe, 0x3f, 0x3d, 0x86, 0xe8, 0x77, 0x3e, 0x3c, 0xf2, 0x1f, 0xbe,
  0x0e, 0xac, 0xb2, 0x3e, 0xca, 0x3e, 0xff, 0x3d, 0xfb, 0xe1, 0x34, 0x3f,
  0xa6, 0x17, 0x3f, 0xbe, 0x57, 0x8d, 0xa9, 0x3d, 0x4c, 0x9b, 0x98, 0xbd,
  0x94, 0x05, 0x1e, 0xbe, 0xf7, 0x74, 0xa6, 0x3d, 0x30, 0x89, 0xd1, 0x3e,
  0xae, 0x41, 0x41, 0xbe, 0xd2, 0x52, 0x6b, 0x3e, 0xcb, 0xf3, 0x84, 0xbe,
  0xec, 0x48, 0xb9, 0x3d, 0x1a, 0xfe, 0x0f, 0xbf, 0xe6, 0x1d, 0xd7, 0x3c,
  0x7b, 0xaf, 0x88, 0xbd, 0xb2, 0x89, 0x8f, 0x3e, 0x5f, 0xb0, 0x18, 0x3d,
  0x81, 0x10, 0xff, 0x3e, 0xb6, 0x52, 0xa9, 0xbe, 0x3c, 0xff, 0x61, 0x3e,
  0x6c, 0xf4, 0x10, 0xbf, 0x48, 0xed, 0x92, 0x3e, 0xc1, 0xa5, 0x0e, 0x3a,
  0xe5, 0x56, 0xa1, 0x3d, 0xc8, 0x1d, 0xcf, 0xbe, 0xd7, 0x98, 0xb6, 0xbb,
  0x4e, 0xfd, 0x8d, 0x3e, 0x7f, 0x38, 0x27, 0x3e, 0xdd, 0x64, 0x15, 0x3e,
  0x13, 0x71, 0x99, 0x3d, 0x83, 0x39, 0xdd, 0xbd, 0x02, 0x03, 0xe5, 0xbe,
  0xb0, 0xdd, 0x94, 0xbe, 0x5c, 0x64, 0xeb, 0xbc, 0x17, 0x85, 0xe4, 0x3e,
  0xbb, 0x90, 0x52, 0x3d, 0x59, 0xee, 0x9a, 0x3e, 0xa2, 0xcd, 0x33, 0xbe,
  0x37, 0x60, 0x64, 0x3d, 0xeb, 0xdf, 0xf8, 0x3b, 0x9c, 0x39, 0x09, 0xbd,
  0x83, 0x05, 0xdb, 0xbd, 0x78, 0x39, 0x4e, 0x3e, 0x82, 0xaa, 0x32, 0x3e,
  0xda, 0x54, 0x0e, 0x3f, 0x86, 0x00, 0x02, 0x3e, 0xc1, 0xf2, 0xd1, 0x3e,
  0x9e, 0x0f, 0x54, 0xbe, 0x34, 0xf8, 0x94, 0xba, 0x62, 0x7b, 0x09, 0xbd,
  0x2e, 0xb3, 0x0b, 0xbf, 0xe4, 0xe2, 0x14, 0xbe, 0xbb, 0xef, 0x0e, 0x3e,
  0x18, 0x4f, 0x50, 0x3c, 0xe5, 0x7e, 0xb3, 0xbe, 0x22, 0xff, 0xcc, 0x3d,
  0x1e, 0x8d, 0xfe, 0xbb, 0x4b, 0x67, 0x50, 0x3f, 0xab, 0x71, 0x52, 0xbf,
  0xb3, 0xcb, 0x75, 0xbd, 0xe6, 0xe5, 0x1e, 0xbe, 0xf1, 0x2a, 0x76, 0x3f,
  0x3a, 0xe5, 0x26, 0xbe, 0xcc, 0x1f, 0xce, 0x3e, 0x42, 0x1f, 0x17, 0x3e,
  0x90, 0xbe, 0x2d, 0x3b, 0xcb, 0xdb, 0xfa, 0x3c, 0xbf, 0x40, 0xc3, 0x3d,
  0x2a, 0xad, 0xc7, 0xbe, 0x09, 0x1e, 0x03, 0x3b, 0xd7, 0xdf, 0x32, 0xbe,
  0xb1, 0x8b, 0x82, 0x3e, 0xee, 0x5f, 0x02, 0xbf, 0x49, 0x95, 0x5f, 0xbe,
  0xb4, 0x9e, 0x7f, 0x3e, 0x53, 0x74, 0xb4, 0xbd, 0xa8, 0xce, 0x94, 0xbd,
  0x85, 0xdb, 0x4e, 0xbd, 0x45, 0xe0, 0xb4, 0x3e, 0x71, 0x9c, 0x77, 0x3e,
  0x5a, 0xc6, 0xdf, 0x3e, 0xea, 0x6b, 0xb6, 0x3e, 0x7c, 0x3f, 0xe5, 0xbe,
  0x54, 0x4b, 0x06, 0x3d, 0xbd, 0x3e, 0x89, 0xbb, 0x1c, 0x67, 0x30, 0xbe,
  0x65, 0xf0, 0x55, 0x3e, 0x6b, 0xc6, 0x16, 0x3e, 0x3d, 0xf2, 0x44, 0xbf,
  0xdb, 0xde, 0xa6, 0x3e, 0x3c, 0xdd, 0x03, 0x3f, 0xda, 0x0a, 0xcf, 0x3d,
  0x11, 0x06, 0xe1, 0x3e, 0x05, 0x3c, 0x4c, 0x3e, 0x61, 0xa5, 0xdf, 0x3e,
  0xb8, 0x65, 0xcf, 0x3e, 0x71, 0xbe, 0xac, 0x3e, 0x55, 0xc0, 0x08, 0xbf,
  0x7a, 0x81, 0xd0, 0xbd, 0x59, 0x8c, 0x47, 0xbe, 0xa3, 0xcc, 0x13, 0x3e,
  0x33, 0xd0, 0xce, 0xbe, 0xf2, 0xca, 0xad, 0x3e, 0xa2, 0x76, 0xfc, 0xbe,
  0xf5, 0x76, 0x84, 0x3e, 0xe2, 0x61, 0xa6, 0xbe, 0x80, 0x0c, 0x0b, 0xbe,
  0x4a, 0x75, 0x24, 0xbb, 0xd5, 0xfa, 0xa9, 0x3e, 0x6e, 0x91, 0x59, 0xbe,
  0x90, 0x5d, 0x57, 0x3e, 0x10, 0x48, 0xe7, 0xbd, 0xb4, 0x70, 0xa6, 0x3e,
  0xbf, 0xfd, 0xa9, 0xbd, 0x66, 0xac, 0xec, 0x3e, 0xd5, 0x76, 0x04, 0xbe,
  0x29, 0x7a, 0x39, 0xbe, 0xbd, 0x5a, 0x57, 0x3e, 0x8e, 0x02, 0x14, 0x3e,
  0xa2, 0x22, 0xb2, 0xbd, 0x20, 0xb9, 0x49, 0xbe, 0xb7, 0xd5, 0x20, 0x3e,
  0xd2, 0x80, 0x5f, 0x3e, 0xeb, 0x0a, 0xca, 0xbe, 0x32, 0xe8, 0x7a, 0x3e,
  0x40, 0x01, 0x0a, 0xbf, 0xf9, 0x72, 0x2b, 0xbe, 0x60, 0x3a, 0x0f, 0xbd,
  0x69, 0x2c, 0x89, 0xbe, 0x55, 0x71, 0xd5, 0xbd, 0xda, 0x4a, 0x31, 0x3f,
  0x85, 0x7b, 0xa7, 0x3e, 0xb0, 0xce, 0xac, 0x3e, 0x6b, 0xbf, 0x07, 0x3e,
  0x1a, 0x72, 0x91, 0xbe, 0x73, 0x5d, 0xe6, 0xbd, 0x00, 0x68, 0x80, 0xbd,
  0x5f, 0xce, 0x5b, 0xbd, 0xaa, 0xd0, 0x78, 0x3e, 0x04, 0xb6, 0xae, 0x3d,
  0x15, 0xda, 0x7b, 0x3d, 0xc9, 0x98, 0x1c, 0xbe, 0xd1, 0xb5, 0xd9, 0xbe,
  0x4e, 0x8a, 0xe9, 0x3d, 0x95, 0x78, 0xda, 0x3e, 0x31, 0xfe, 0xa7, 0xbc,
  0x93, 0x31, 0x5b, 0xbe, 0x5f, 0x37, 0x56, 0xbe, 0xc2, 0xfb, 0x22, 0x3e,
  0xbc, 0x86, 0x01, 0xbf, 0x05, 0x86, 0xee, 0x3e, 0x5a, 0x93, 0xaf, 0x3d,
  0x7f, 0x02, 0x29, 0xbe, 0xc4, 0xba, 0x37, 0xbf, 0x11, 0x1a, 0x35, 0x3f,
  0x55, 0xfa, 0xa8, 0xbe, 0xe4, 0x88, 0xd7, 0xbd, 0xc9, 0x58, 0xec, 0x3e,
  0xdc, 0x32, 0x16, 0xbe, 0x64, 0x5c, 0x5b, 0xbc, 0xf8, 0x88, 0x1d, 0x3f,
  0xc2, 0xd6, 0x34, 0x3e, 0x7a, 0xc3, 0x8d, 0x3e, 0xe7, 0x30, 0xc2, 0xbe,
  0x03, 0x38, 0x7c, 0x3e, 0xed, 0xee, 0xaf, 0x3e, 0xe8, 0x83, 0x2f, 0xbd,
  0xbf, 0xa6, 0xae, 0xbe, 0xb3, 0x81, 0x3e, 0xbe, 0x27, 0xe7, 0x24, 0xbe,
  0x16, 0x4a, 0x1f, 0xbf, 0x23, 0x27, 0xbf, 0x3e, 0x42, 0xfd, 0x9f, 0xbc,
  0x01, 0xed, 0x03, 0x3e, 0x39, 0x55, 0xd0, 0xbe, 0x33, 0x96, 0xe6, 0xbd,
  0x5f, 0x6d, 0xdc, 0x3c, 0x9e, 0xf0, 0x42, 0x3d, 0x2a, 0x5f, 0xfc, 0xbd,
  0xb9, 0x4f, 0xba, 0x3e, 0xf6, 0x66, 0x9e, 0xbe, 0xef, 0x5d, 0xf0, 0x3d,
  0x5f, 0x73, 0x3b, 0x3e, 0x12, 0xf6, 0xb3, 0xbe, 0xf4, 0xf2, 0xa3, 0x3e,
  0x19, 0x09, 0x89, 0xbe, 0x98, 0x6b, 0xe4, 0x3e, 0xf5, 0x72, 0x4f, 0x3e,
  0xf4, 0xea, 0x30, 0xbe, 0x1c, 0xd7, 0x92, 0xbe, 0x31, 0xef, 0x3d, 0x3c,
  0x2a, 0xb7, 0x28, 0xbf, 0x97, 0xa7, 0x2f, 0x3e, 0x15, 0x57, 0x90, 0x3e,
  0x27, 0x3b, 0xe1, 0xbd, 0xf0, 0x0f, 0x89, 0x3e, 0xe0, 0xa5, 0x91, 0x3f,
  0xb9, 0xd0, 0x9d, 0xbd, 0x7b, 0xc6, 0xa8, 0xbe, 0xce, 0x68, 0x70, 0xbe,
  0x28, 0x84, 0xab, 0xbe, 0x6e, 0x46, 0x82, 0xbd, 0x76, 0x65, 0xea, 0xbe,
  0x3f, 0x45, 0x2b, 0xbf, 0x8d, 0xce, 0xc6, 0xbe, 0xf4, 0x7a, 0xf1, 0xbd,
  0x02, 0x74, 0x60, 0xbe, 0xf9, 0xbf, 0xb2, 0xbd, 0xe0, 0xb5, 0x04, 0xbe,
  0x5b, 0x00, 0x00, 0x3f, 0x9e, 0x60, 0xbf, 0xbd, 0xd5, 0x99, 0xd8, 0xbd,
  0x61, 0x70, 0xe8, 0xbd, 0xd7, 0xd2, 0x84, 0x3d, 0x21, 0xad, 0x26, 0xbf,
  0x95, 0x13, 0x6f, 0xbe, 0x53, 0x79, 0x99, 0xbd, 0xc9, 0x63, 0xf1, 0xbd,
  0x6d, 0x9b, 0x45, 0x3f, 0xd9, 0x20, 0xfb, 0x3c, 0x7f, 0xd0, 0x31, 0xbf,
  0x10, 0x36, 0xaf, 0x3e, 0x72, 0x7c, 0x96, 0x3e, 0xc4, 0x3e, 0x7d, 0x3e,
  0x8e, 0x20, 0xb3, 0xbe, 0xdb, 0xc0, 0x46, 0x3e, 0xde, 0x59, 0xec, 0x3e,
  0xdf, 0x2d, 0x07, 0xbf, 0xed, 0x11, 0x6d, 0xbe, 0xce, 0x1e, 0x7a, 0xbe,
  0x8b, 0xf1, 0x06, 0x3f, 0xc5, 0x55, 0x67, 0xbf, 0x56, 0x7f, 0x35, 0xbe,
  0x31, 0xa5, 0xa2, 0xbe, 0x11, 0x30, 0x16, 0xbf, 0x6d, 0xe0, 0x1f, 0x3e,
  0xb1, 0x0a, 0x12, 0xbe, 0x20, 0xfb, 0x0d, 0x3e, 0x36, 0x1d, 0x48, 0x3e,
  0x44, 0xea, 0xa8, 0xbe, 0x79, 0x40, 0x1e, 0x3e, 0x77, 0xb9, 0x04, 0x3f,
  0x88, 0x7c, 0x78, 0xbe, 0x97, 0x49, 0xa3, 0x3e, 0x5e, 0x95, 0x89, 0x3e,
  0x42, 0x7d, 0xcb, 0xbd, 0xb6, 0xe3, 0xe7, 0x3d, 0x82, 0x28, 0x1d, 0xbd,
  0xc8, 0xf9, 0xba, 0x3e, 0x51, 0xf8, 0xd0, 0x3e, 0x6d, 0xc5, 0x77, 0x3e,
  0x1e, 0x91, 0x2d, 0x3f, 0x4d, 0x51, 0x88, 0x3e, 0xd2, 0x17, 0x72, 0x3d,
  0x60, 0x45, 0xca, 0x3d, 0xd3, 0xad, 0x6e, 0x3e, 0xb0, 0x8f, 0xfd, 0xbe,
  0x2c, 0x9f, 0xe2, 0x3e, 0x1c, 0xec, 0x79, 0xbd, 0x56, 0x7d, 0x80, 0x3f,
  0xbf, 0x51, 0xce, 0xbe, 0xec, 0x52, 0x5a, 0x3f, 0x42, 0xb5, 0x04, 0xbe,
  0x6e, 0x93, 0x8c, 0x3e, 0x0b, 0xd8, 0xfa, 0xbc, 0x77, 0x8a, 0x0d, 0x3f,
  0xf7, 0xc7, 0xb0, 0x3e, 0x02, 0x7d, 0x10, 0x3f, 0xf0, 0x56, 0xc0, 0xbd,
  0xca, 0xee, 0x4c, 0x3e, 0xa7, 0x4e, 0x93, 0xbc, 0xd7, 0x0f, 0xe5, 0x3e,
  0x3f, 0x97, 0x2b, 0x3e, 0xa0, 0x53, 0x0b, 0xbd, 0x58, 0xf4, 0xd7, 0x3d,
  0xeb, 0x44, 0xbc, 0xb9, 0x7d, 0xbb, 0x30, 0x3e, 0xa3, 0xee, 0x79, 0xbe,
  0xa5, 0xca, 0xce, 0x3e, 0x21, 0x66, 0xbb, 0x3c, 0x4a, 0xa6, 0x8d, 0x3e,
  0x24, 0x9f, 0xa4, 0xbe, 0xcc, 0xe8, 0x2c, 0x3f, 0x9c, 0x0e, 0x8e, 0xbe,
  0x27, 0x57, 0xe7, 0x3e, 0x11, 0x4d, 0xb1, 0xbd, 0xe2, 0x64, 0xe2, 0x3d,
  0x3b, 0xa6, 0xd6, 0x3d, 0x7a, 0x5f, 0xda, 0x3e, 0x1a, 0xcb, 0x75, 0xbd,
  0xb4, 0x9f, 0x6c, 0xbe, 0xe7, 0xb1, 0xb1, 0x3e, 0xfd, 0xba, 0x10, 0x3e,
  0x3a, 0x50, 0xa4, 0x3d, 0x1a, 0x73, 0xaa, 0xbe, 0xb5, 0x2d, 0x82, 0xbd,
  0xb4, 0x76, 0x26, 0x3f, 0xa8, 0x43, 0x1b, 0x3e, 0x01, 0x6b, 0x0a, 0xbf,
  0x75, 0xd3, 0x07, 0x3e, 0xaf, 0x3c, 0x6f, 0xbc, 0xe4, 0xba, 0x4a, 0x3f,
  0xd9, 0xd1, 0xe7, 0xbe, 0x85, 0xb2, 0x5f, 0xbe, 0x0d, 0x20, 0x09, 0xbf,
  0xc1, 0x3a, 0x9b, 0x3e, 0x47, 0xa9, 0xae, 0x3d, 0xc5, 0x0b, 0xaa, 0x3e,
  0xd8, 0x8c, 0xbd, 0x3e, 0x1b, 0xfe, 0xfb, 0xbe, 0xe4, 0x3c, 0x09, 0x3f,
  0x3e, 0xdd, 0x0e, 0x3e, 0xd3, 0xf7, 0x08, 0xbf, 0xdf, 0x20, 0x07, 0x3e,
  0xf2, 0x95, 0x55, 0x3d, 0x7d, 0xbf, 0x12, 0x3f, 0x8f, 0xaa, 0x74, 0x3e,
  0x3b, 0x52, 0xb3, 0x3e, 0x34, 0x79, 0x4c, 0xbe, 0x28, 0xc6, 0xd6, 0x3e,
  0xca, 0x45, 0x3f, 0xbe, 0x67, 0x31, 0x9b, 0x3e, 0x51, 0x8f, 0xee, 0xbe,
  0x47, 0x55, 0x35, 0x3d, 0x40, 0x2e, 0xac, 0xbd, 0xca, 0x72, 0x4b, 0xbd,
  0x7b, 0xf4, 0x66, 0xbd, 0x80, 0xf3, 0x0f, 0xbe, 0x26, 0xa2, 0x22, 0x3f,
  0x0d, 0x51, 0x59, 0x3e, 0x88, 0xef, 0xee, 0x3e, 0x4e, 0xb0, 0xdd, 0xbd,
  0x6f, 0xbb, 0x93, 0x3e, 0x2c, 0x26, 0x40, 0xbc, 0x00, 0xd5, 0xa5, 0x3e,
  0x07, 0xb7, 0xd6, 0x3b, 0x90, 0x1b, 0x77, 0x3e, 0x75, 0xbb, 0xa4, 0x3e,
  0x91, 0x71, 0x2a, 0x3d, 0xe9, 0x70, 0x36, 0x3c, 0x7e, 0xdd, 0x2e, 0xbf,
  0x61, 0x23, 0x1e, 0x3e, 0x04, 0xd0, 0x92, 0x3e, 0x02, 0x37, 0x46, 0x3e,
  0x6d, 0x7d, 0x8f, 0x3e, 0x6e, 0x66, 0xdf, 0xbd, 0x39, 0x99, 0x1c, 0xbf,
  0x51, 0x9d, 0x89, 0x3e, 0xb7, 0xf8, 0x31, 0x3e, 0xa7, 0x4c, 0xfc, 0x3e,
  0x1b, 0x41, 0x9e, 0x3e, 0xe0, 0xbf, 0x84, 0x3e, 0xe0, 0x5f, 0xe1, 0xbe,
  0x82, 0x91, 0x0e, 0x3f, 0x7b, 0x77, 0x90, 0x3e, 0x44, 0xf9, 0xa3, 0x3e,
  0x13, 0xc8, 0xb9, 0xbe, 0xf5, 0x81, 0x94, 0x3f, 0x22, 0xed, 0x79, 0xbb,
  0xa8, 0x4c, 0x00, 0x3f, 0x66, 0xb9, 0x2a, 0x3f, 0x83, 0x99, 0x9c, 0xbd,
  0x18, 0x48, 0xbf, 0xbe, 0x65, 0x43, 0x17, 0x3f, 0x97, 0x21, 0x3c, 0x3e,
  0xb8, 0x0a, 0x3d, 0xbe, 0xbb, 0xc4, 0x53, 0x3e, 0x5b, 0xf8, 0xeb, 0x3b,
  0x40, 0x17, 0x90, 0xbe, 0x1b, 0x0f, 0xe4, 0x3e, 0xdc, 0xcc, 0xfc, 0xbe,
  0x17, 0x1c, 0x93, 0x3e, 0x5a, 0xfa, 0xff, 0xff, 0x60, 0x00, 0x00, 0x00,
  0x05, 0x00, 0x00, 0x00, 0x08, 0x00, 0x00, 0x00, 0x68, 0x00, 0x00, 0x00,
  0x49, 0x00, 0x00, 0x00, 0x73, 0x65, 0x71, 0x75, 0x65, 0x6e, 0x74, 0x69,
  0x61, 0x6c, 0x2f, 0x63, 0x6f, 0x6e, 0x76, 0x32, 0x64, 0x2f, 0x43, 0x6f,
  0x6e, 0x76, 0x32, 0x44, 0x3b, 0x53, 0x74, 0x61, 0x74, 0x65, 0x66, 0x75,
  0x6c, 0x50, 0x61, 0x72, 0x74, 0x69, 0x74, 0x69, 0x6f, 0x6e, 0x65, 0x64,
  0x43, 0x61, 0x6c, 0x6c, 0x2f, 0x73, 0x65, 0x71, 0x75, 0x65, 0x6e, 0x74,
  0x69, 0x61, 0x6c, 0x2f, 0x63, 0x6f, 0x6e, 0x76, 0x32, 0x64, 0x2f, 0x43,
  0x6f, 0x6e, 0x76, 0x32, 0x44, 0x00, 0x00, 0x00, 0x04, 0x00, 0x00, 0x00,
  0x03, 0x00, 0x00, 0x00, 0x03, 0x00, 0x00, 0x00, 0x19, 0x00, 0x00, 0x00,
  0x02, 0x00, 0x00, 0x00, 0x90, 0xfa, 0xff, 0xff, 0x7a, 0xfb, 0xff, 0xff,
  0x04, 0x00, 0x00, 0x00, 0x84, 0x03, 0x00, 0x00, 0xf3, 0xf8, 0xea, 0xbe,
  0x46, 0x8b, 0xd6, 0x3e, 0x43, 0x8a, 0x29, 0x3f, 0x4a, 0xb4, 0x0d, 0x3f,
  0x94, 0x68, 0x16, 0xbf, 0xea, 0xec, 0x72, 0x3f, 0x45, 0xf2, 0x82, 0x3e,
  0x0c, 0x7d, 0x65, 0xbe, 0xbc, 0x82, 0x0e, 0xbf, 0x7a, 0x07, 0xba, 0xbe,
  0xb5, 0x6e, 0x04, 0x3e, 0xd7, 0xa3, 0xa2, 0xbd, 0xfa, 0x4b, 0x54, 0x3f,
  0x11, 0xc9, 0x85, 0xbf, 0xeb, 0x6e, 0x41, 0x3f, 0x48, 0x12, 0xd0, 0x3d,
  0x42, 0x5a, 0x01, 0xbf, 0x7d, 0x07, 0x8f, 0xbe, 0xff, 0x07, 0x8f, 0x3f,
  0x5e, 0xaa, 0xcf, 0x3e, 0x53, 0xc1, 0x9b, 0x3e, 0x2a, 0xa4, 0xc8, 0x3e,
  0x5b, 0xa7, 0x43, 0x3e, 0x17, 0x98, 0x35, 0x3f, 0x84, 0xdd, 0x01, 0x3f,
  0xfb, 0xb4, 0xdf, 0xbe, 0xc4, 0xf0, 0xbe, 0x3e, 0xa4, 0xdf, 0x9c, 0xbe,
  0x2b, 0xe6, 0x23, 0xbd, 0x5f, 0x60, 0x33, 0x3e, 0x89, 0x59, 0x0e, 0xbe,
  0x3b, 0x7c, 0x95, 0x3e, 0x78, 0x02, 0x7f, 0x3f, 0x95, 0xdd, 0xa3, 0x3d,
  0x2f, 0xf7, 0x34, 0x3f, 0x5e, 0x72, 0x17, 0xbc, 0x5c, 0x60, 0x5a, 0x3f,
  0x92, 0x16, 0xe7, 0x3e, 0xdd, 0xab, 0x0c, 0x3e, 0x82, 0x98, 0xd6, 0xbe,
  0x3f, 0x14, 0x04, 0x3f, 0x3f, 0x99, 0xee, 0x3e, 0x68, 0x8d, 0x81, 0x3e,
  0xad, 0xb8, 0x19, 0xbe, 0x00, 0x66, 0xaa, 0x3e, 0x69, 0x20, 0x2a, 0x3f,
  0x80, 0x74, 0xbe, 0x3e, 0x34, 0x8f, 0x7d, 0x3d, 0xa3, 0xe5, 0x6a, 0x3e,
  0x20, 0xde, 0x21, 0xbf, 0x70, 0x39, 0xc2, 0x3e, 0x41, 0x9a, 0x48, 0x3f,
  0x02, 0x51, 0xa8, 0x3e, 0x3e, 0xe3, 0xbd, 0x3d, 0x30, 0x7e, 0x2b, 0x3e,
  0xa9, 0x15, 0x63, 0xbe, 0x04, 0xf3, 0xf4, 0x3e, 0x69, 0x09, 0xea, 0x3e,
  0xcc, 0x46, 0x71, 0x3e, 0x1f, 0x86, 0xe1, 0x3e, 0x03, 0xeb, 0x96, 0x3d,
  0xa4, 0x31, 0x8d, 0xbe, 0x95, 0x98, 0xbf, 0x3e, 0xb6, 0xc4, 0x4e, 0x3e,
  0xff, 0x05, 0x95, 0xbd, 0xe4, 0x32, 0xfa, 0xbd, 0xc1, 0xcb, 0xf9, 0x3d,
  0xb8, 0x9c, 0xc7, 0xbc, 0x10, 0x77, 0x9b, 0xbe, 0xe2, 0xe8, 0xc1, 0xbe,
  0x5e, 0xcb, 0x8b, 0xbe, 0x00, 0x3b, 0x36, 0xbd, 0xa7, 0xb0, 0xdf, 0xbe,
  0x5a, 0x39, 0x6f, 0xbf, 0x00, 0xa5, 0x28, 0xbf, 0xa6, 0xac, 0xaa, 0xbd,
  0x06, 0xb3, 0x12, 0xbf, 0x4a, 0xcc, 0x2a, 0x3f, 0x86, 0xed, 0xb5, 0xbe,
  0xb2, 0x27, 0x9b, 0x3e, 0x80, 0xd7, 0x0c, 0x3f, 0xb6, 0x3f, 0xa7, 0xbe,
  0x44, 0x7e, 0xd9, 0x3e, 0x4b, 0x8f, 0x3d, 0xbe, 0x53, 0xbb, 0x9a, 0xbe,
  0x0d, 0xb3, 0xa4, 0xbc, 0xb4, 0xad, 0x8f, 0x3e, 0x37, 0x59, 0x41, 0xbf,
  0xd2, 0x65, 0x11, 0x3e, 0x5f, 0x7a, 0x89, 0xbe, 0xca, 0x51, 0x38, 0xbf,
  0xa3, 0x4a, 0x52, 0xbd, 0xe9, 0xf2, 0x92, 0x3e, 0x8d, 0xbe, 0x22, 0xbf,
  0x60, 0x10, 0x8f, 0xbf, 0x8d, 0xa2, 0x08, 0xbf, 0xc7, 0x52, 0xd5, 0xbe,
  0x01, 0x2e, 0x01, 0x3f, 0x39, 0xdf, 0xf9, 0xbd, 0x12, 0x82, 0xa7, 0xbf,
  0xf4, 0xfc, 0x83, 0x3e, 0x68, 0x68, 0xa2, 0xbe, 0x73, 0xfd, 0xea, 0xbe,
  0xcd, 0xd6, 0x59, 0x3e, 0x1f, 0xf8, 0x17, 0xbf, 0xff, 0xe8, 0xb6, 0x3e,
  0x5d, 0x22, 0xe7, 0xbe, 0xbf, 0x8a, 0x4b, 0xbf, 0xa2, 0x24, 0xa2, 0x3e,
  0x01, 0xeb, 0x0a, 0xbf, 0xea, 0x4e, 0x17, 0xbe, 0xd7, 0xec, 0x19, 0xbf,
  0x4a, 0xee, 0xa2, 0xbf, 0x4f, 0x78, 0x11, 0xbf, 0xe4, 0x70, 0x12, 0xbd,
  0x93, 0x5d, 0xac, 0x3d, 0xfd, 0x60, 0x2e, 0xbf, 0x31, 0xdd, 0x5f, 0x3e,
  0xda, 0xf8, 0xd6, 0xbd, 0x2f, 0x0e, 0xd1, 0x3d, 0x88, 0x15, 0x7f, 0xbd,
  0x0e, 0x00, 0x29, 0x3f, 0xd3, 0x7a, 0xc9, 0x3c, 0x29, 0x5e, 0x1e, 0x3f,
  0x6f, 0x31, 0x1f, 0x3f, 0x03, 0xed, 0x25, 0xbe, 0xb7, 0xe7, 0x1d, 0xbf,
  0x1a, 0x85, 0x03, 0x3f, 0x83, 0x91, 0x87, 0x3e, 0x1d, 0xee, 0xaf, 0xbe,
  0x6a, 0x29, 0xf0, 0x3e, 0x52, 0xc4, 0x87, 0x3e, 0xea, 0xdc, 0xfa, 0xbe,
  0x19, 0xec, 0xa9, 0xbd, 0x0d, 0x5a, 0x6f, 0xbe, 0xda, 0x78, 0x84, 0xbe,
  0x5c, 0x4f, 0x3b, 0x3f, 0xde, 0xfb, 0x71, 0x3e, 0x68, 0xcf, 0x21, 0x3e,
  0x4c, 0x0f, 0x6d, 0x3e, 0x79, 0xc8, 0xea, 0x3e, 0x59, 0x60, 0x0d, 0x3e,
  0x2b, 0xb6, 0xbc, 0x3e, 0x28, 0xb0, 0x9c, 0x3e, 0x3e, 0xb7, 0xe0, 0x3d,
  0x8e, 0x82, 0x11, 0x3e, 0x57, 0x34, 0xe6, 0x3e, 0xad, 0x06, 0x00, 0x3f,
  0xee, 0x53, 0x4f, 0x3f, 0x4b, 0x2c, 0xe1, 0x3e, 0x36, 0x5b, 0xb7, 0x3e,
  0xa3, 0x97, 0x88, 0xbe, 0x4f, 0xa1, 0x68, 0xbf, 0x12, 0xf2, 0xdd, 0x3d,
  0xaa, 0x98, 0x8a, 0x3e, 0x71, 0x7b, 0x68, 0xbf, 0x0e, 0x7b, 0xeb, 0x3e,
  0x19, 0xdd, 0x31, 0x3e, 0x70, 0xb3, 0x68, 0x3e, 0x82, 0x51, 0x01, 0x3f,
  0x85, 0xc0, 0xc0, 0x3e, 0x07, 0x2a, 0x8b, 0x3c, 0x27, 0xb9, 0x87, 0x3d,
  0x3e, 0x14, 0x39, 0xbd, 0xa7, 0x50, 0x31, 0xbf, 0x19, 0x5a, 0xcf, 0x3e,
  0x08, 0xce, 0x0f, 0x3f, 0xd5, 0x53, 0x1e, 0xbc, 0xd4, 0xf5, 0xa6, 0xbd,
  0x29, 0xc6, 0x38, 0x3f, 0x13, 0x90, 0x94, 0x3e, 0x28, 0x84, 0x34, 0xbd,
  0xc5, 0xe2, 0xab, 0xbe, 0xfb, 0xf3, 0x40, 0xbf, 0x50, 0x2d, 0xa1, 0x3f,
  0x12, 0xd1, 0xa6, 0x3e, 0xa3, 0x00, 0x2a, 0x3e, 0x72, 0x5f, 0xa0, 0x3e,
  0x40, 0x48, 0xb6, 0xbe, 0xe1, 0x50, 0xe2, 0x3e, 0x84, 0xb1, 0x7b, 0x3e,
  0x60, 0x15, 0xc6, 0x3e, 0xab, 0xbb, 0x72, 0xbe, 0x14, 0xca, 0x30, 0xbf,
  0x6a, 0x12, 0x92, 0x3e, 0x3a, 0x7e, 0x57, 0xbd, 0x88, 0x2a, 0xcf, 0xbe,
  0x7d, 0x25, 0xc1, 0x3d, 0x3f, 0x74, 0x13, 0x3f, 0x29, 0xc1, 0x55, 0x3e,
  0x06, 0x5a, 0x26, 0xbe, 0x60, 0x22, 0xea, 0x3e, 0x6c, 0x94, 0xd6, 0xbe,
  0x75, 0xf7, 0x90, 0xbe, 0x8c, 0xf0, 0xfc, 0xbe, 0x5a, 0x0c, 0x11, 0xbf,
  0xb0, 0x90, 0x20, 0xbf, 0xa5, 0xf5, 0x4f, 0x3e, 0x42, 0x30, 0x44, 0xbf,
  0x53, 0xf9, 0xba, 0xbe, 0x67, 0x34, 0xa5, 0xbd, 0x58, 0xdf, 0x09, 0xbd,
  0xe2, 0x17, 0x5d, 0xbf, 0xd2, 0xb6, 0xe2, 0xbe, 0xaa, 0xf5, 0x2a, 0x3e,
  0xb8, 0x0c, 0xd1, 0xbe, 0x76, 0x4a, 0xf9, 0xbe, 0x0b, 0xae, 0x85, 0x3e,
  0x5d, 0x4b, 0x26, 0xbe, 0xea, 0xeb, 0x14, 0xbf, 0x62, 0xc4, 0x35, 0xbe,
  0xda, 0xd4, 0x0a, 0xbc, 0x4e, 0xdf, 0xde, 0xbe, 0xef, 0x55, 0x93, 0xbe,
  0x46, 0x4b, 0xcc, 0xbd, 0x36, 0xb5, 0x8e, 0xbd, 0x6a, 0x65, 0xb0, 0xbe,
  0xd4, 0x41, 0xa6, 0xbe, 0xa6, 0x85, 0x0b, 0xbf, 0x5b, 0xf6, 0x3a, 0xbe,
  0x39, 0x2d, 0xce, 0xbd, 0x8f, 0x35, 0x28, 0xbf, 0x6d, 0x45, 0x28, 0xbf,
  0x3e, 0xbc, 0x15, 0xbf, 0x73, 0x6d, 0x3f, 0xbe, 0x66, 0xfe, 0xff, 0xff,
  0x60, 0x00, 0x00, 0x00, 0x04, 0x00, 0x00, 0x00, 0x08, 0x00, 0x00, 0x00,
  0x60, 0x00, 0x00, 0x00, 0x49, 0x00, 0x00, 0x00, 0x73, 0x65, 0x71, 0x75,
  0x65, 0x6e, 0x74, 0x69, 0x61, 0x6c, 0x2f, 0x6f, 0x75, 0x74, 0x70, 0x75,
  0x74, 0x2f, 0x4d, 0x61, 0x74, 0x4d, 0x75, 0x6c, 0x3b, 0x53, 0x74, 0x61,
  0x74, 0x65, 0x66, 0x75, 0x6c, 0x50, 0x61, 0x72, 0x74, 0x69, 0x74, 0x69,
  0x6f, 0x6e, 0x65, 0x64, 0x43, 0x61, 0x6c, 0x6c, 0x2f, 0x73, 0x65, 0x71,
  0x75, 0x65, 0x6e, 0x74, 0x69, 0x61, 0x6c, 0x2f, 0x6f, 0x75, 0x74, 0x70,
  0x75, 0x74, 0x2f, 0x4d, 0x61, 0x74, 0x4d, 0x75, 0x6c, 0x00, 0x00, 0x00,
  0x02, 0x00, 0x00, 0x00, 0x03, 0x00, 0x00, 0x00, 0x4b, 0x00, 0x00, 0x00,
  0x94, 0xfe, 0xff, 0xff, 0x7e, 0xff, 0xff, 0xff, 0x04, 0x00, 0x00, 0x00,
  0x0c, 0x00, 0x00, 0x00, 0xec, 0x6e, 0xb3, 0xbb, 0x46, 0x25, 0xc2, 0x3d,
  0x35, 0xcf, 0x04, 0xbe, 0xf2, 0xfe, 0xff, 0xff, 0x58, 0x00, 0x00, 0x00,
  0x03, 0x00, 0x00, 0x00, 0x08, 0x00, 0x00, 0x00, 0x54, 0x00, 0x00, 0x00,
  0x40, 0x00, 0x00, 0x00, 0x53, 0x74, 0x61, 0x74, 0x65, 0x66, 0x75, 0x6c,
  0x50, 0x61, 0x72, 0x74, 0x69, 0x74, 0x69, 0x6f, 0x6e, 0x65, 0x64, 0x43,
  0x61, 0x6c, 0x6c, 0x2f, 0x73, 0x65, 0x71, 0x75, 0x65, 0x6e, 0x74, 0x69,
  0x61, 0x6c, 0x2f, 0x6f, 0x75, 0x74, 0x70, 0x75, 0x74, 0x2f, 0x42, 0x69,
  0x61, 0x73, 0x41, 0x64, 0x64, 0x2f, 0x52, 0x65, 0x61, 0x64, 0x56, 0x61,
  0x72, 0x69, 0x61, 0x62, 0x6c, 0x65, 0x4f, 0x70, 0x00, 0x00, 0x00, 0x00,
  0x01, 0x00, 0x00, 0x00, 0x03, 0x00, 0x00, 0x00, 0x60, 0xff, 0xff, 0xff,
  0x00, 0x00, 0x06, 0x00, 0x08, 0x00, 0x04, 0x00, 0x06, 0x00, 0x00, 0x00,
  0x04, 0x00, 0x00, 0x00, 0x08, 0x00, 0x00, 0x00, 0xff, 0xff, 0xff, 0xff,
  0x4b, 0x00, 0x00, 0x00, 0x00, 0x00, 0x0e, 0x00, 0x18, 0x00, 0x08, 0x00,
  0x07, 0x00, 0x0c, 0x00, 0x10, 0x00, 0x14, 0x00, 0x0e, 0x00, 0x00, 0x00,
  0x00, 0x00, 0x00, 0x02, 0x60, 0x00, 0x00, 0x00, 0x02, 0x00, 0x00, 0x00,
  0x08, 0x00, 0x00, 0x00, 0x60, 0x00, 0x00, 0x00, 0x49, 0x00, 0x00, 0x00,
  0x73, 0x65, 0x71, 0x75, 0x65, 0x6e, 0x74, 0x69, 0x61, 0x6c, 0x2f, 0x66,
  0x6c, 0x61, 0x74, 0x74, 0x65, 0x6e, 0x2f, 0x43, 0x6f, 0x6e, 0x73, 0x74,
  0x3b, 0x53, 0x74, 0x61, 0x74, 0x65, 0x66, 0x75, 0x6c, 0x50, 0x61, 0x72,
  0x74, 0x69, 0x74, 0x69, 0x6f, 0x6e, 0x65, 0x64, 0x43, 0x61, 0x6c, 0x6c,
  0x2f, 0x73, 0x65, 0x71, 0x75, 0x65, 0x6e, 0x74, 0x69, 0x61, 0x6c, 0x2f,
  0x66, 0x6c, 0x61, 0x74, 0x74, 0x65, 0x6e, 0x2f, 0x43, 0x6f, 0x6e, 0x73,
  0x74, 0x00, 0x00, 0x00, 0x01, 0x00, 0x00, 0x00, 0x02, 0x00, 0x00, 0x00,
  0x04, 0x00, 0x06, 0x00, 0x04, 0x00, 0x00, 0x00, 0x00, 0x00, 0x0e, 0x00,
  0x14, 0x00, 0x04, 0x00, 0x00, 0x00, 0x08, 0x00, 0x0c, 0x00, 0x10, 0x00,
  0x0e, 0x00, 0x00, 0x00, 0x18, 0x00, 0x00, 0x00, 0x01, 0x00, 0x00, 0x00,
  0x08, 0x00, 0x00, 0x00, 0x20, 0x00, 0x00, 0x00, 0x01, 0x00, 0x00, 0x00,
  0x78, 0x00, 0x00, 0x00, 0x04, 0x00, 0x00, 0x00, 0x01, 0x00, 0x00, 0x00,
  0x03, 0x00, 0x00, 0x00, 0x19, 0x00, 0x00, 0x00, 0x02, 0x00, 0x00, 0x00,
  0xfc, 0xff, 0xff, 0xff, 0x04, 0x00, 0x04, 0x00, 0x04, 0x00, 0x00, 0x00
};
unsigned int __ml_dataset_model_tflite_len = 5100;
