unsigned char model_tflite[] = {
    0x20, 0x00, 0x00, 0x00, 0x54, 0x46, 0x4c, 0x33, 0x00, 0x00, 0x00, 0x00,
    0x14, 0x00, 0x20, 0x00, 0x04, 0x00, 0x08, 0x00, 0x0c, 0x00, 0x10, 0x00,
    0x14, 0x00, 0x00, 0x00, 0x18, 0x00, 0x1c, 0x00, 0x14, 0x00, 0x00, 0x00,
    0x03, 0x00, 0x00, 0x00, 0x34, 0x12, 0x00, 0x00, 0x88, 0x0c, 0x00, 0x00,
    0x70, 0x0c, 0x00, 0x00, 0xa8, 0x00, 0x00, 0x00, 0x70, 0x00, 0x00, 0x00,
    0x04, 0x00, 0x00, 0x00, 0x01, 0x00, 0x00, 0x00, 0x04, 0x00, 0x00, 0x00,
    0xc2, 0xf2, 0xff, 0xff, 0x44, 0x00, 0x00, 0x00, 0x1c, 0x00, 0x00, 0x00,
    0x04, 0x00, 0x00, 0x00, 0x0f, 0x00, 0x00, 0x00, 0x73, 0x65, 0x72, 0x76,
    0x69, 0x6e, 0x67, 0x5f, 0x64, 0x65, 0x66, 0x61, 0x75, 0x6c, 0x74, 0x00,
    0x01, 0x00, 0x00, 0x00, 0x04, 0x00, 0x00, 0x00, 0xc4, 0xff, 0xff, 0xff,
    0x08, 0x00, 0x00, 0x00, 0x0a, 0x00, 0x00, 0x00, 0x08, 0x00, 0x00, 0x00,
    0x6f, 0x75, 0x74, 0x70, 0x75, 0x74, 0x5f, 0x30, 0x00, 0x00, 0x00, 0x00,
    0x01, 0x00, 0x00, 0x00, 0x04, 0x00, 0x00, 0x00, 0x76, 0xf3, 0xff, 0xff,
    0x04, 0x00, 0x00, 0x00, 0x01, 0x00, 0x00, 0x00, 0x78, 0x00, 0x00, 0x00,
    0x01, 0x00, 0x00, 0x00, 0x0c, 0x00, 0x00, 0x00, 0x08, 0x00, 0x0c, 0x00,
    0x04, 0x00, 0x08, 0x00, 0x08, 0x00, 0x00, 0x00, 0x08, 0x00, 0x00, 0x00,
    0x0c, 0x00, 0x00, 0x00, 0x13, 0x00, 0x00, 0x00, 0x6d, 0x69, 0x6e, 0x5f,
    0x72, 0x75, 0x6e, 0x74, 0x69, 0x6d, 0x65, 0x5f, 0x76, 0x65, 0x72, 0x73,
    0x69, 0x6f, 0x6e, 0x00, 0x0d, 0x00, 0x00, 0x00, 0xbc, 0x0b, 0x00, 0x00,
    0xa8, 0x0b, 0x00, 0x00, 0x8c, 0x0b, 0x00, 0x00, 0x68, 0x0b, 0x00, 0x00,
    0xd4, 0x07, 0x00, 0x00, 0xb0, 0x00, 0x00, 0x00, 0x8c, 0x00, 0x00, 0x00,
    0x80, 0x00, 0x00, 0x00, 0x6c, 0x00, 0x00, 0x00, 0x58, 0x00, 0x00, 0x00,
    0x44, 0x00, 0x00, 0x00, 0x30, 0x00, 0x00, 0x00, 0x04, 0x00, 0x00, 0x00,
    0xf2, 0xf3, 0xff, 0xff, 0x04, 0x00, 0x00, 0x00, 0x10, 0x00, 0x00, 0x00,
    0x31, 0x2e, 0x35, 0x2e, 0x30, 0x00, 0x00, 0x00, 0x00, 0x00, 0x00, 0x00,
    0x00, 0x00, 0x00, 0x00, 0x00, 0x00, 0x00, 0x00, 0x00, 0x00, 0x00, 0x00,
    0x00, 0x00, 0x00, 0x00, 0x14, 0xef, 0xff, 0xff, 0x00, 0x00, 0x00, 0x00,
    0x00, 0x00, 0x00, 0x00, 0x00, 0x00, 0x00, 0x00, 0x24, 0xef, 0xff, 0xff,
    0x00, 0x00, 0x00, 0x00, 0x00, 0x00, 0x00, 0x00, 0x00, 0x00, 0x00, 0x00,
    0x34, 0xef, 0xff, 0xff, 0x00, 0x00, 0x00, 0x00, 0x00, 0x00, 0x00, 0x00,
    0x00, 0x00, 0x00, 0x00, 0x44, 0xef, 0xff, 0xff, 0x00, 0x00, 0x00, 0x00,
    0x00, 0x00, 0x00, 0x00, 0x00, 0x00, 0x00, 0x00, 0x54, 0xef, 0xff, 0xff,
    0x00, 0x00, 0x00, 0x00, 0x62, 0xf4, 0xff, 0xff, 0x04, 0x00, 0x00, 0x00,
    0x0c, 0x00, 0x00, 0x00, 0x3d, 0xf3, 0x84, 0xbc, 0x68, 0x13, 0xe6, 0xba,
    0xe1, 0x7f, 0xd9, 0xbc, 0x00, 0x00, 0x00, 0x00, 0x00, 0x00, 0x00, 0x00,
    0x82, 0xf4, 0xff, 0xff, 0x04, 0x00, 0x00, 0x00, 0x08, 0x07, 0x00, 0x00,
    0xba, 0x58, 0x15, 0xbd, 0xdf, 0x3c, 0x2a, 0xbc, 0x31, 0x8c, 0x1e, 0x3e,
    0x04, 0x08, 0xee, 0x3e, 0x61, 0xa3, 0xf3, 0xbe, 0xf9, 0x73, 0x1e, 0xbd,
    0x35, 0x23, 0x88, 0xbe, 0xde, 0xc2, 0xc4, 0xbe, 0x88, 0x43, 0xa1, 0x3d,
    0xc8, 0x9e, 0x67, 0xbe, 0x6c, 0x98, 0xad, 0xbd, 0x34, 0xa1, 0x4c, 0xbd,
    0xad, 0xba, 0xb2, 0xbd, 0x64, 0xc6, 0x16, 0xbf, 0xaf, 0x32, 0x16, 0xbd,
    0x70, 0x57, 0x96, 0xbe, 0x9a, 0xf1, 0xae, 0xbd, 0x48, 0xcc, 0x25, 0x3e,
    0x4e, 0x06, 0xb4, 0xbe, 0x8d, 0xad, 0x0c, 0x3f, 0x39, 0xc6, 0x3f, 0x3e,
    0x6a, 0x5e, 0x8f, 0x3d, 0x2a, 0x0e, 0xc8, 0x3e, 0x59, 0xaa, 0xa3, 0x3e,
    0xe5, 0x3b, 0x11, 0xbd, 0x08, 0x2c, 0x7a, 0xbd, 0xbd, 0x07, 0x0c, 0x3f,
    0xd4, 0x24, 0x85, 0xbd, 0x5f, 0xe8, 0x1a, 0xbe, 0x3f, 0x7a, 0xe2, 0x3e,
    0xd7, 0x72, 0xf8, 0x3e, 0xb5, 0x49, 0x8a, 0x3e, 0xec, 0xd1, 0x64, 0xbe,
    0x0f, 0x90, 0x0a, 0xbe, 0xcf, 0x1e, 0x81, 0x3e, 0xc8, 0x5c, 0xff, 0x3d,
    0x0f, 0xf7, 0x15, 0x3f, 0xa0, 0xc2, 0x1f, 0xbe, 0x0e, 0x3e, 0x09, 0x3f,
    0xb4, 0x17, 0x5b, 0x3e, 0x89, 0x14, 0x31, 0xbe, 0x6d, 0xa6, 0x00, 0x3f,
    0x69, 0xd3, 0x24, 0x3d, 0xd4, 0x4b, 0xd5, 0xbe, 0x78, 0xc1, 0x30, 0x3f,
    0x9c, 0x93, 0x2f, 0xbe, 0xbc, 0xcd, 0x7e, 0x3d, 0x45, 0xf2, 0x98, 0x3e,
    0x78, 0x1a, 0x97, 0x3e, 0xcc, 0x6e, 0x02, 0x3e, 0x36, 0x8b, 0x9e, 0xbe,
    0xe7, 0xb4, 0xff, 0x3e, 0x0f, 0x8b, 0xa0, 0xbe, 0x0a, 0x8e, 0xae, 0x3d,
    0xe8, 0x27, 0x55, 0xbe, 0xbb, 0xc3, 0xff, 0xbe, 0x59, 0x84, 0xb7, 0x3e,
    0xc9, 0x37, 0x11, 0xbf, 0xad, 0x21, 0x0e, 0xbe, 0xd7, 0xac, 0xde, 0x3c,
    0x11, 0x57, 0xed, 0x3e, 0x85, 0xc0, 0xf8, 0xbe, 0x08, 0x78, 0x51, 0xbe,
    0xef, 0xad, 0x2b, 0xbe, 0xc9, 0x8b, 0x25, 0xbe, 0x30, 0x5b, 0x1a, 0x3e,
    0x55, 0xa7, 0x94, 0xbe, 0x58, 0x9e, 0xfa, 0x3e, 0x0b, 0xa3, 0x04, 0x3f,
    0x35, 0xf0, 0x2d, 0x3e, 0xb0, 0xe4, 0x95, 0xbd, 0x17, 0x22, 0x15, 0xbe,
    0x1d, 0xdd, 0x17, 0xbe, 0x99, 0x70, 0xb8, 0xbe, 0x41, 0xa5, 0xbc, 0x3e,
    0xda, 0xa5, 0xbd, 0x3d, 0x93, 0x76, 0xcd, 0x3b, 0x7e, 0x04, 0xa9, 0xbe,
    0xc3, 0xac, 0xd1, 0x3e, 0xb8, 0x80, 0xb2, 0x3d, 0x59, 0x9e, 0x9c, 0x3e,
    0x62, 0x0a, 0x9b, 0x3d, 0x53, 0xa1, 0x33, 0x3e, 0x8b, 0x0c, 0x51, 0x3d,
    0xd6, 0x90, 0xfb, 0x3d, 0x3d, 0x65, 0x48, 0xbe, 0x70, 0xda, 0xcc, 0x3e,
    0xd9, 0x60, 0x40, 0x3f, 0x2b, 0xbb, 0x80, 0xbd, 0xf2, 0xce, 0xcd, 0xbd,
    0x9f, 0x99, 0x8a, 0x3e, 0x4a, 0xc7, 0x22, 0xbf, 0x46, 0x0e, 0x4d, 0x3e,
    0x51, 0xda, 0x80, 0x3d, 0x6b, 0x2a, 0x95, 0x3e, 0x90, 0x29, 0xeb, 0xbe,
    0xa4, 0x7a, 0xf8, 0x3d, 0x4c, 0xb2, 0xc9, 0xbe, 0x4c, 0x78, 0xc3, 0x3e,
    0x94, 0x3e, 0x07, 0xbb, 0xa5, 0xe3, 0xe3, 0xbd, 0x27, 0x41, 0x4d, 0x3a,
    0x38, 0xb2, 0x39, 0xbf, 0xe8, 0xc9, 0x26, 0xbe, 0x26, 0x39, 0x55, 0xbf,
    0x94, 0x65, 0x4b, 0xbf, 0x08, 0x93, 0x2f, 0xbf, 0xf7, 0x88, 0x69, 0x3c,
    0xed, 0xd8, 0xf6, 0xbe, 0x0e, 0xb9, 0x16, 0xbe, 0xe2, 0x78, 0x2f, 0xbf,
    0x60, 0x31, 0xa6, 0x3b, 0x36, 0xf4, 0x3f, 0xbc, 0xb8, 0xc9, 0x43, 0x3d,
    0xf1, 0xba, 0xbb, 0x3e, 0x74, 0xf5, 0xcb, 0x3e, 0x5d, 0xbf, 0x63, 0xbe,
    0xa0, 0x42, 0x54, 0xbd, 0x8a, 0x2f, 0xc9, 0x3d, 0xae, 0x71, 0x5e, 0xbf,
    0x29, 0x43, 0x1d, 0x3f, 0x19, 0xa2, 0x85, 0xbb, 0x67, 0xbe, 0x5b, 0x3e,
    0x06, 0x09, 0xe0, 0xbe, 0x28, 0xaf, 0x9e, 0xbb, 0xfa, 0x9a, 0x53, 0xbe,
    0x95, 0x95, 0xc3, 0x3c, 0xe6, 0x4a, 0xe5, 0x3b, 0x0c, 0xeb, 0x09, 0x3f,
    0x34, 0x08, 0x7f, 0x3e, 0x15, 0x1d, 0x34, 0x3f, 0x9e, 0xdd, 0x4a, 0x3e,
    0x05, 0x32, 0x34, 0x3e, 0x82, 0x17, 0x21, 0x3f, 0x16, 0xeb, 0xda, 0x3e,
    0x47, 0x38, 0xe3, 0xbd, 0x19, 0xb5, 0x35, 0x3e, 0xc1, 0xc7, 0x7b, 0x3d,
    0x8c, 0xf0, 0x10, 0x3f, 0x0a, 0xda, 0x5e, 0x3f, 0xcc, 0xf0, 0xed, 0xbd,
    0x88, 0xdc, 0xf2, 0xbd, 0x84, 0xf6, 0xbf, 0xbe, 0xdd, 0xc6, 0x92, 0xbe,
    0x92, 0xbe, 0x55, 0xbe, 0x69, 0xca, 0x75, 0x3f, 0x1f, 0x19, 0xa3, 0xbe,
    0x97, 0x2e, 0xcc, 0x3e, 0x42, 0x79, 0x6b, 0x3d, 0xa4, 0x5b, 0x24, 0x3f,
    0x74, 0xa6, 0xdb, 0x3d, 0x96, 0x13, 0x8d, 0x3e, 0x8d, 0x3e, 0x9a, 0xbe,
    0x4c, 0xc4, 0x21, 0x3e, 0x83, 0x90, 0x87, 0x3e, 0x0d, 0xcd, 0x2e, 0x3e,
    0x70, 0xf2, 0x37, 0xbe, 0xb4, 0xa3, 0x02, 0x3f, 0xce, 0xc5, 0x86, 0x3d,
    0x9e, 0x35, 0x70, 0x3e, 0x8d, 0x56, 0x6e, 0xbc, 0x78, 0x11, 0x2a, 0xbe,
    0x7f, 0x25, 0x37, 0x3d, 0xed, 0xfb, 0x37, 0x3d, 0x5e, 0x16, 0x3e, 0x3e,
    0x97, 0x4f, 0xa2, 0xbd, 0x5d, 0xfe, 0x1e, 0x3e, 0x7a, 0x73, 0x3d, 0xbe,
    0x81, 0x7d, 0x37, 0xbe, 0x57, 0xa9, 0x32, 0x3e, 0xc3, 0xa8, 0x26, 0x3e,
    0xf8, 0x35, 0x29, 0x3e, 0x95, 0x7e, 0xbd, 0xbe, 0x72, 0xb5, 0xbc, 0xbd,
    0x55, 0xbe, 0x92, 0xbd, 0x5d, 0xf7, 0x86, 0x3e, 0x0b, 0x08, 0x2d, 0x3f,
    0xca, 0x02, 0xba, 0xbd, 0xe4, 0x58, 0x29, 0x3f, 0x5c, 0x48, 0xf8, 0xbe,
    0x7e, 0x5a, 0x47, 0x3d, 0x24, 0x43, 0x90, 0xbc, 0xce, 0xcf, 0x66, 0xbe,
    0x03, 0xfd, 0x69, 0x3e, 0x76, 0x13, 0x2f, 0x3f, 0xe0, 0x92, 0x41, 0x3e,
    0xa0, 0xbc, 0x22, 0xbe, 0xa0, 0x20, 0x37, 0xbb, 0xed, 0x2a, 0x8b, 0x3e,
    0xa5, 0x86, 0x92, 0x3e, 0x56, 0xcb, 0x64, 0xbf, 0x4d, 0xfd, 0x2c, 0x3f,
    0x52, 0x5e, 0x7b, 0x3e, 0xf8, 0x7d, 0xa2, 0xba, 0xa3, 0x57, 0x46, 0x3e,
    0xcd, 0x8f, 0x73, 0x3e, 0xa2, 0xff, 0xa8, 0xbe, 0x47, 0x4b, 0xe1, 0xbd,
    0x0a, 0x78, 0x48, 0xbd, 0x89, 0xdd, 0x83, 0xbe, 0x3f, 0x18, 0x3e, 0xbf,
    0x45, 0x84, 0x0d, 0xbe, 0x79, 0x0d, 0x41, 0xbe, 0xb4, 0x32, 0xf8, 0xbe,
    0xc9, 0x65, 0x11, 0xbf, 0x1e, 0xcf, 0xc3, 0xbe, 0x07, 0x10, 0x74, 0xbe,
    0x59, 0xe5, 0xe3, 0xbc, 0xe9, 0x48, 0x2c, 0xbf, 0xdf, 0xbf, 0x6a, 0xbe,
    0x2e, 0x2c, 0x2d, 0x3e, 0x24, 0xa5, 0x99, 0xbe, 0x4d, 0x0e, 0x91, 0x3d,
    0xd6, 0x09, 0x0b, 0xbd, 0x3c, 0x2a, 0x65, 0xbe, 0x85, 0x10, 0x15, 0x3d,
    0x76, 0xdf, 0xd6, 0x3d, 0x41, 0xf1, 0xd9, 0x3e, 0x45, 0xf9, 0x88, 0x3d,
    0x01, 0x03, 0xbd, 0x3d, 0x72, 0xea, 0x37, 0x3e, 0x53, 0x5e, 0xe0, 0x3e,
    0x4b, 0x20, 0x27, 0x3e, 0xb5, 0x9d, 0x58, 0x3c, 0xaf, 0x0e, 0x6b, 0xbd,
    0x14, 0x7c, 0x19, 0xbf, 0xa8, 0x66, 0x47, 0x3f, 0xd3, 0x16, 0x8d, 0xbe,
    0x11, 0xa9, 0x52, 0x3f, 0x80, 0x1f, 0x9b, 0x3d, 0x34, 0x53, 0x1c, 0xbf,
    0x96, 0x86, 0xd4, 0xbe, 0x7a, 0x66, 0x71, 0x3e, 0x5d, 0xab, 0x37, 0xbe,
    0x8e, 0x3a, 0x0f, 0x3e, 0xae, 0x5f, 0x3b, 0xbf, 0x90, 0x86, 0x08, 0x3f,
    0x46, 0xb4, 0xca, 0x3e, 0x1a, 0x21, 0x49, 0x3f, 0x82, 0x42, 0x72, 0xbe,
    0x98, 0x58, 0x90, 0xbd, 0xe0, 0xe2, 0x5e, 0xbe, 0x0c, 0xcd, 0x3c, 0xbc,
    0xe5, 0x5a, 0xe2, 0xbe, 0xd4, 0x76, 0xef, 0x3e, 0x71, 0x03, 0x5f, 0x3f,
    0x98, 0x50, 0x0a, 0xbe, 0x60, 0x63, 0x5a, 0xbc, 0x4b, 0x9a, 0xe8, 0xbe,
    0x46, 0x3c, 0xad, 0xbe, 0x46, 0x53, 0xfa, 0xbe, 0xe3, 0x4f, 0x5e, 0xbe,
    0xe4, 0x06, 0x09, 0x3c, 0xff, 0xad, 0x0b, 0xbe, 0x6f, 0x46, 0x4f, 0xbf,
    0x73, 0x7c, 0x96, 0x3e, 0x7d, 0xa8, 0x3c, 0xbf, 0xdc, 0x18, 0x1b, 0xbe,
    0x5d, 0x5f, 0x2f, 0xbb, 0xf7, 0xc4, 0x73, 0x3e, 0x01, 0x9f, 0x85, 0xbc,
    0x99, 0x08, 0xc2, 0xbe, 0x6f, 0x16, 0x2e, 0xbe, 0xc0, 0xd1, 0xe5, 0x3e,
    0x63, 0xa6, 0xd6, 0xbe, 0xfc, 0x05, 0x69, 0x3d, 0x5d, 0xdd, 0x4b, 0xbe,
    0xc3, 0xfe, 0x6a, 0xbe, 0xc6, 0x21, 0x29, 0x3e, 0x35, 0x8c, 0xbd, 0x3e,
    0xad, 0x38, 0xc1, 0xbe, 0x04, 0x33, 0x21, 0xbe, 0xed, 0x8f, 0xd6, 0x3d,
    0xee, 0x05, 0xb4, 0xbd, 0xfb, 0x7a, 0xaf, 0x3e, 0x03, 0x91, 0x0a, 0xbf,
    0x77, 0xcd, 0x97, 0x3e, 0xe2, 0x56, 0xac, 0x3e, 0x84, 0x61, 0xc0, 0x3d,
    0xaf, 0x0d, 0xc4, 0xbe, 0x7c, 0xb7, 0x52, 0x3f, 0x83, 0x8d, 0x7b, 0x3e,
    0xf1, 0x0f, 0xde, 0x3e, 0x08, 0xea, 0xe2, 0xbe, 0x32, 0x5d, 0x47, 0x3f,
    0xaf, 0x21, 0x47, 0x3c, 0x74, 0xaa, 0x24, 0x3d, 0xaf, 0x1f, 0x50, 0x3f,
    0x4d, 0x3d, 0x4a, 0xbe, 0x15, 0xb2, 0xf4, 0x3e, 0x53, 0x18, 0x67, 0x3f,
    0x46, 0xbf, 0x9a, 0xbb, 0xcb, 0x83, 0x16, 0x3f, 0xf3, 0xde, 0xc0, 0xbe,
    0x15, 0x9d, 0xcd, 0x3c, 0xce, 0x35, 0x53, 0x3d, 0xbc, 0xac, 0x86, 0x3c,
    0xa2, 0xf2, 0x41, 0x3f, 0x5e, 0xd9, 0x69, 0x3e, 0xf0, 0x20, 0x6f, 0x3c,
    0xf8, 0x20, 0x07, 0x3f, 0x46, 0x07, 0x2f, 0xbf, 0xf1, 0xe2, 0x10, 0x3e,
    0xf4, 0x07, 0xb4, 0xbd, 0x51, 0xb1, 0x94, 0xbd, 0xf0, 0x30, 0xf3, 0xbd,
    0x56, 0x5d, 0x2f, 0xbe, 0xf3, 0x7e, 0x33, 0xbe, 0xdd, 0x2b, 0x17, 0x3e,
    0x18, 0x50, 0x8e, 0xbd, 0xdf, 0xd7, 0x3d, 0xbf, 0x14, 0x0b, 0x78, 0x3e,
    0xc2, 0xd0, 0x5e, 0x3e, 0x8b, 0x83, 0xe0, 0xbd, 0x1c, 0xf0, 0x20, 0xbe,
    0xcc, 0x96, 0x7d, 0x3e, 0x38, 0x82, 0x1d, 0x3e, 0xbd, 0x36, 0x35, 0x3e,
    0xac, 0x3a, 0xd4, 0x3e, 0x1d, 0xbb, 0x9c, 0x3e, 0x38, 0x54, 0x07, 0xbf,
    0xe5, 0xe4, 0xe2, 0x3e, 0xd6, 0xc3, 0x88, 0x3e, 0x17, 0x14, 0xdb, 0xba,
    0x98, 0xfe, 0x1e, 0xbc, 0xdc, 0x66, 0x4c, 0x3e, 0x79, 0x4b, 0x37, 0x3c,
    0x8a, 0xa8, 0x57, 0x3e, 0x40, 0x20, 0x5b, 0xbf, 0xc5, 0x4d, 0x18, 0xbf,
    0xec, 0x18, 0x10, 0x3f, 0xb2, 0xc6, 0xec, 0xbe, 0xa9, 0x35, 0x8d, 0x3e,
    0x43, 0x24, 0xd7, 0x3d, 0xfb, 0x0a, 0xce, 0x3e, 0x36, 0x7e, 0xa4, 0xbd,
    0x99, 0x22, 0xd8, 0x3e, 0xed, 0xb5, 0x35, 0x3f, 0x5d, 0x19, 0x77, 0xbd,
    0x32, 0x64, 0xf1, 0xbe, 0xff, 0x8b, 0x57, 0x3e, 0xb6, 0xb8, 0xef, 0xbe,
    0x5d, 0x52, 0x87, 0xbd, 0x32, 0x45, 0x2e, 0xba, 0x3a, 0xbb, 0x31, 0xbe,
    0xcc, 0x02, 0xe1, 0xbe, 0x4f, 0x10, 0x4e, 0x3e, 0x7c, 0xdc, 0x4d, 0x3f,
    0xfc, 0xb6, 0xc6, 0x3e, 0x1d, 0xf3, 0x98, 0xbe, 0x67, 0x8b, 0xdf, 0xbe,
    0xdb, 0xa8, 0x00, 0xbf, 0xea, 0x27, 0x0e, 0xbf, 0xcd, 0x80, 0x29, 0xbf,
    0x22, 0x35, 0x7f, 0x3d, 0x38, 0xdb, 0xaa, 0xbe, 0xc9, 0x60, 0x8f, 0x3e,
    0xb0, 0x19, 0xbe, 0x3e, 0xc9, 0xe3, 0x4c, 0xbe, 0x9c, 0x5c, 0x56, 0x3e,
    0x72, 0x7f, 0xa2, 0xbc, 0xa2, 0x67, 0x9a, 0xbe, 0x22, 0x48, 0x05, 0xbe,
    0x44, 0x8f, 0xdf, 0x3c, 0x86, 0x8c, 0x41, 0x3e, 0xe9, 0x7b, 0xb6, 0x3e,
    0xa3, 0x15, 0x2c, 0xbc, 0xf2, 0x61, 0x11, 0x3d, 0x3c, 0x67, 0x55, 0xbe,
    0x8d, 0x89, 0x8c, 0xbe, 0x31, 0x6b, 0x2a, 0x3f, 0xaa, 0xb8, 0x99, 0x3e,
    0x96, 0xca, 0xd1, 0x3e, 0x3d, 0xdb, 0x24, 0x3d, 0x77, 0xad, 0x2f, 0xbe,
    0x77, 0x58, 0xbf, 0xbe, 0x8a, 0x0f, 0x9c, 0x3d, 0xc4, 0xe6, 0xec, 0x3d,
    0x17, 0x88, 0x53, 0xbe, 0x36, 0xba, 0x46, 0xbf, 0x1d, 0x47, 0x36, 0x3b,
    0xc1, 0x58, 0xc1, 0xbd, 0x3f, 0x24, 0x16, 0x3e, 0x9e, 0xd2, 0xac, 0x3e,
    0x5a, 0xd2, 0xc8, 0x3e, 0x0b, 0xcc, 0xb4, 0x3e, 0x89, 0xf8, 0xfb, 0xbd,
    0xba, 0xf0, 0x39, 0x3f, 0xc6, 0x97, 0x48, 0x3e, 0xcf, 0xea, 0x06, 0x3f,
    0x84, 0x15, 0xf9, 0xbe, 0xf2, 0xd2, 0xca, 0xbd, 0x7a, 0xef, 0x9b, 0x3e,
    0xf1, 0xa6, 0x02, 0xbf, 0xa3, 0xe4, 0x79, 0x3d, 0x17, 0x12, 0x3d, 0xbe,
    0x4f, 0x9c, 0x85, 0x3d, 0x2e, 0x4f, 0x0a, 0xbf, 0x83, 0xe9, 0xcd, 0xbd,
    0x4a, 0x60, 0xcc, 0x3e, 0x0b, 0x90, 0xc9, 0x3d, 0x26, 0x24, 0x28, 0x3e,
    0x7a, 0x39, 0x38, 0xbf, 0xfa, 0xb6, 0x0f, 0x3e, 0x0f, 0x5f, 0x27, 0x3e,
    0x30, 0x2b, 0x9f, 0xbe, 0x11, 0x5b, 0x71, 0xbb, 0x23, 0x30, 0x3f, 0xbe,
    0x64, 0xfc, 0xe9, 0xbe, 0x5e, 0x7f, 0x08, 0x3e, 0xe4, 0x45, 0x26, 0x3e,
    0x9d, 0x02, 0x9a, 0x3e, 0xac, 0x1b, 0xdc, 0x3e, 0x8d, 0x7e, 0xe5, 0x3e,
    0xb5, 0x30, 0xce, 0x3e, 0x4d, 0x9c, 0xe3, 0xbc, 0x8a, 0xe6, 0xb5, 0x3c,
    0x40, 0x47, 0x37, 0xbf, 0x71, 0x1b, 0x9e, 0x3e, 0x68, 0x8a, 0xad, 0xbd,
    0x19, 0xc8, 0xb6, 0x3d, 0xaa, 0xb6, 0x06, 0x3e, 0xc4, 0xf7, 0xdb, 0xbd,
    0x4e, 0xdb, 0x17, 0x3e, 0xbe, 0xe0, 0xd0, 0x3e, 0x60, 0xf0, 0x12, 0x3f,
    0x86, 0xd6, 0x1f, 0x3f, 0xfa, 0x08, 0xc2, 0xbe, 0xb9, 0x0b, 0x47, 0x3f,
    0x71, 0xd8, 0xba, 0x3e, 0x0b, 0xee, 0x0a, 0x3f, 0x90, 0x16, 0x27, 0xbd,
    0xe5, 0xa5, 0x34, 0x3d, 0xe1, 0x14, 0xa1, 0x3e, 0xe5, 0xe2, 0x87, 0x3e,
    0xfa, 0x5d, 0xd8, 0x3e, 0xc9, 0x05, 0xa1, 0xbe, 0x70, 0xca, 0x24, 0x3e,
    0x4c, 0x32, 0x9e, 0x3e, 0xb7, 0x9a, 0x22, 0xbf, 0x58, 0x21, 0x15, 0xbf,
    0x73, 0xf8, 0x0b, 0xbe, 0x0c, 0x1c, 0xb7, 0xbd, 0xe7, 0xdd, 0x8d, 0x3f,
    0xee, 0x69, 0xa8, 0xbe, 0x94, 0xff, 0xf7, 0xbe, 0x2f, 0xbe, 0xe8, 0x3e,
    0x96, 0x28, 0x08, 0xbf, 0x2f, 0xbd, 0x95, 0xbe, 0x5d, 0x31, 0xa9, 0x3d,
    0x00, 0x00, 0x00, 0x00, 0x00, 0x00, 0x00, 0x00, 0x00, 0x00, 0x00, 0x00,
    0xa2, 0xfb, 0xff, 0xff, 0x04, 0x00, 0x00, 0x00, 0x84, 0x03, 0x00, 0x00,
    0x52, 0xe9, 0x66, 0x3f, 0xc7, 0x91, 0xac, 0xbc, 0x41, 0xfb, 0xcb, 0xbd,
    0xb9, 0xca, 0xf7, 0x3d, 0xe8, 0x48, 0xb9, 0x3f, 0x6a, 0xef, 0x24, 0xbe,
    0xb1, 0xb4, 0x50, 0x3e, 0x69, 0x7f, 0x93, 0xbe, 0xec, 0xff, 0x2c, 0xbe,
    0x93, 0x7c, 0x1d, 0x3e, 0x1e, 0x4a, 0x8d, 0xbe, 0x74, 0x2f, 0x03, 0x3f,
    0x5c, 0x66, 0x06, 0xbf, 0xfe, 0xb2, 0xe9, 0xbe, 0xa9, 0x3e, 0x46, 0x3f,
    0xea, 0x74, 0x3d, 0xbe, 0x13, 0x59, 0xbb, 0xbe, 0xbb, 0x10, 0x06, 0x3c,
    0x69, 0xa6, 0xb4, 0xbe, 0x8a, 0x2d, 0xdb, 0xbc, 0xdc, 0xbc, 0x3a, 0xbd,
    0x4c, 0x8e, 0xac, 0x3e, 0x4e, 0x4e, 0xc4, 0x3e, 0x9b, 0x33, 0x93, 0xbe,
    0x7f, 0xa5, 0xf6, 0xbe, 0xf3, 0x15, 0x23, 0xbf, 0x96, 0x98, 0x70, 0xbf,
    0x12, 0xe6, 0x0f, 0x3f, 0xa5, 0xf4, 0x65, 0xbe, 0x86, 0xe2, 0xae, 0xbe,
    0xa9, 0x5b, 0x59, 0xbe, 0x91, 0x09, 0xf5, 0xbd, 0xe6, 0x53, 0x38, 0x3f,
    0x01, 0x61, 0xef, 0xbe, 0x16, 0x47, 0x02, 0xbf, 0x32, 0x0d, 0x9b, 0xbd,
    0x09, 0x50, 0x94, 0xbf, 0xea, 0x54, 0x89, 0xbe, 0xeb, 0xe4, 0x1a, 0x3e,
    0xe8, 0xc3, 0x50, 0xbd, 0x75, 0xcb, 0x3b, 0xbf, 0x83, 0x76, 0xa8, 0xbe,
    0x61, 0x16, 0xa5, 0xbf, 0xd9, 0x07, 0xbb, 0xbf, 0x60, 0x66, 0x37, 0xbe,
    0x1a, 0x94, 0x22, 0xbf, 0x63, 0x7d, 0x59, 0xbf, 0xbd, 0x1c, 0x6c, 0xbe,
    0x06, 0xbe, 0x7e, 0xbf, 0xcb, 0xe7, 0xa9, 0xbf, 0x1e, 0x6c, 0x85, 0xbf,
    0xef, 0x69, 0x50, 0xbf, 0x2d, 0x23, 0x7c, 0xbf, 0xe9, 0xed, 0x7a, 0xbf,
    0x4d, 0x64, 0x25, 0xbe, 0xb7, 0x28, 0x51, 0xbf, 0x47, 0x34, 0xbb, 0xbe,
    0x68, 0x00, 0x7c, 0xbe, 0x3f, 0x88, 0x68, 0xbf, 0x49, 0x16, 0x85, 0xbf,
    0x84, 0x62, 0xc5, 0xbe, 0x20, 0x65, 0x74, 0xbf, 0x77, 0x8b, 0x1d, 0xbf,
    0xef, 0x4d, 0x11, 0xbe, 0xc3, 0xbf, 0x6a, 0xbe, 0x3b, 0x30, 0x2b, 0xbe,
    0x98, 0x0c, 0xd2, 0xbd, 0x54, 0x22, 0x32, 0xbe, 0xda, 0x75, 0x52, 0xbe,
    0x9d, 0x91, 0x2e, 0x3e, 0xf6, 0x8c, 0x0d, 0x3d, 0xd2, 0xd1, 0xc7, 0xbe,
    0x15, 0xc6, 0xb5, 0xbd, 0x8d, 0xec, 0x30, 0x3e, 0x1e, 0x3c, 0x01, 0x3e,
    0xeb, 0x9b, 0xa8, 0xbe, 0x7d, 0x1f, 0x41, 0xbf, 0x1c, 0x93, 0x42, 0xbf,
    0x9d, 0x40, 0x35, 0x3f, 0xdd, 0x59, 0x8c, 0xbf, 0x8e, 0x5d, 0x86, 0x3e,
    0x58, 0x0d, 0x36, 0xbf, 0x24, 0xd4, 0xbe, 0x3e, 0x96, 0x1c, 0x0c, 0xbe,
    0xf3, 0xbc, 0x0e, 0x3e, 0x96, 0xd6, 0xc1, 0xbe, 0x0a, 0x3c, 0x39, 0x3f,
    0x9e, 0x21, 0x9a, 0xbc, 0x8a, 0x44, 0x01, 0x3e, 0x66, 0xcb, 0xd4, 0x3e,
    0x9c, 0x57, 0xac, 0xbe, 0x5d, 0xce, 0x9a, 0x3e, 0x1b, 0xbf, 0x02, 0xbf,
    0xa1, 0x47, 0x3a, 0xbf, 0x74, 0x30, 0xf1, 0xbd, 0x40, 0x2e, 0x1a, 0xbf,
    0xb3, 0xa6, 0x2d, 0xbf, 0x87, 0x9b, 0xf9, 0xbe, 0xc7, 0xb3, 0xa9, 0xbf,
    0x4f, 0x06, 0x4e, 0x3d, 0x0a, 0xed, 0x9f, 0x3e, 0x32, 0x6d, 0xe9, 0xbc,
    0xeb, 0x1e, 0xac, 0xbe, 0x0c, 0xe5, 0x87, 0x3f, 0x64, 0xe8, 0x37, 0x3d,
    0x03, 0xe9, 0x0e, 0xbe, 0x35, 0x57, 0xa4, 0x3f, 0x12, 0xf2, 0x2e, 0xbf,
    0xfd, 0xd0, 0x4f, 0x3f, 0x82, 0xe0, 0x03, 0xbe, 0xd4, 0x9e, 0x08, 0x3e,
    0x52, 0x0b, 0x0a, 0x3f, 0x5d, 0x47, 0x20, 0x3f, 0x55, 0xde, 0x0e, 0xbe,
    0xad, 0xc3, 0xab, 0x3e, 0xfa, 0x6f, 0x2e, 0x3f, 0x67, 0x8b, 0x98, 0x3f,
    0xf5, 0xc9, 0xd8, 0xbe, 0x14, 0xdb, 0x19, 0x3f, 0x8a, 0xf5, 0xdc, 0x3e,
    0x1a, 0x6f, 0x4f, 0x3e, 0x71, 0x1c, 0x5f, 0xbe, 0x7b, 0xd4, 0x1a, 0x3f,
    0x27, 0x17, 0x0e, 0x3f, 0x35, 0x83, 0xe1, 0x3d, 0x49, 0x9e, 0x1b, 0x3e,
    0xe2, 0x3d, 0xfb, 0x3e, 0x09, 0xd7, 0xb2, 0x3d, 0x7a, 0x75, 0xae, 0x3d,
    0x7e, 0x90, 0xac, 0xbe, 0xaa, 0x6c, 0xf8, 0x3e, 0x20, 0x91, 0x42, 0x3e,
    0x89, 0x60, 0xf7, 0x3e, 0xcb, 0x93, 0xbc, 0xbe, 0x0e, 0x38, 0x34, 0x3f,
    0x59, 0xb8, 0x0d, 0x3e, 0x2f, 0x6f, 0xbd, 0xbd, 0x52, 0x37, 0x31, 0x3f,
    0x85, 0x81, 0xaa, 0x3e, 0x12, 0x0e, 0x24, 0x3f, 0x9a, 0xc7, 0x99, 0xbd,
    0x04, 0xdf, 0xed, 0x3e, 0xb1, 0x10, 0xb2, 0x3d, 0x1f, 0x21, 0x67, 0x3e,
    0x20, 0x41, 0x2b, 0x3e, 0xd8, 0x5e, 0x1f, 0xbe, 0x85, 0x92, 0x00, 0x3d,
    0x0a, 0x0c, 0x8c, 0xbe, 0xfb, 0xbe, 0x83, 0x3e, 0xe7, 0x53, 0xd8, 0xbe,
    0xe8, 0xb1, 0x1f, 0xbf, 0xa4, 0xff, 0x81, 0x3e, 0x7d, 0xa0, 0x0f, 0x3f,
    0x3a, 0xf8, 0x51, 0xbf, 0xd8, 0x9f, 0x79, 0xbf, 0x69, 0xa6, 0x20, 0xbf,
    0x78, 0x0c, 0x85, 0x3e, 0xc5, 0xe5, 0xce, 0x3e, 0x66, 0xaf, 0x43, 0x3c,
    0x6a, 0x38, 0x71, 0x3d, 0xdb, 0xc6, 0x83, 0x3e, 0x14, 0x9a, 0x60, 0xbf,
    0x64, 0xe6, 0xc8, 0x3d, 0xb7, 0x9a, 0x7f, 0x3e, 0xfe, 0xea, 0x67, 0xbf,
    0x37, 0x87, 0xe5, 0x3e, 0x92, 0x1d, 0xcd, 0xbe, 0x61, 0x22, 0xab, 0x3e,
    0x7f, 0xad, 0x5f, 0x3f, 0x27, 0xdb, 0xe4, 0x3e, 0xa4, 0x00, 0x84, 0x3e,
    0xe8, 0xdb, 0x3b, 0x3e, 0xce, 0x62, 0x58, 0xbe, 0xb1, 0x93, 0x16, 0x3f,
    0x6c, 0x88, 0x32, 0x3f, 0xfd, 0x1e, 0x96, 0x3e, 0xe0, 0xf5, 0x3b, 0x3f,
    0x4e, 0x3f, 0x36, 0x3e, 0x49, 0xb2, 0xd4, 0xbe, 0xf5, 0xc8, 0xa4, 0x3d,
    0xa0, 0x13, 0xad, 0xbe, 0xbf, 0x44, 0x65, 0xbf, 0x9d, 0x78, 0x82, 0xbd,
    0x0d, 0xc4, 0x01, 0xbc, 0xa4, 0xbd, 0x4a, 0x3e, 0x1d, 0x7e, 0x04, 0xbf,
    0x33, 0x09, 0x38, 0x3f, 0xc3, 0xd1, 0x06, 0xbe, 0x58, 0xb3, 0x9c, 0x3e,
    0x5c, 0xcf, 0xef, 0x3d, 0xc3, 0x23, 0x4f, 0x3c, 0xa5, 0x83, 0x20, 0xbf,
    0x87, 0xa8, 0x05, 0x3f, 0xbe, 0x83, 0xdb, 0xbe, 0xff, 0xd1, 0x6e, 0xbd,
    0xd5, 0xd3, 0x83, 0xbe, 0xab, 0x5f, 0x34, 0x3f, 0xcf, 0x4f, 0x52, 0xbe,
    0x42, 0x6c, 0x03, 0x3e, 0x88, 0x25, 0x2f, 0x3f, 0x99, 0xd4, 0xb4, 0x3d,
    0x84, 0xf5, 0x6d, 0xbe, 0x57, 0x61, 0x89, 0x3e, 0xc0, 0xb4, 0x17, 0x3d,
    0x9b, 0xda, 0xe3, 0x3e, 0x0c, 0x69, 0x3a, 0xbe, 0x31, 0x92, 0x9d, 0x3e,
    0x3c, 0xbf, 0x08, 0xbf, 0x7f, 0x84, 0xec, 0x3e, 0x81, 0x47, 0x90, 0xbe,
    0xc0, 0x00, 0x11, 0xbf, 0x71, 0x41, 0xa4, 0xba, 0x5f, 0x16, 0xd8, 0xbe,
    0x2f, 0x68, 0x3d, 0xbd, 0x41, 0x8a, 0x61, 0xbf, 0xb8, 0x7f, 0x16, 0x3a,
    0x6c, 0x16, 0xf5, 0xbe, 0x02, 0xca, 0x2a, 0xbe, 0x33, 0x5e, 0x31, 0x3e,
    0x11, 0x68, 0x60, 0xbe, 0xc5, 0x13, 0x5c, 0x3d, 0xcd, 0xc6, 0xcf, 0xbd,
    0xcb, 0xea, 0xc8, 0x3e, 0x19, 0x3d, 0x6b, 0xbf, 0x90, 0xb0, 0x91, 0x3e,
    0x32, 0xff, 0xff, 0xff, 0x04, 0x00, 0x00, 0x00, 0x08, 0x00, 0x00, 0x00,
    0xff, 0xff, 0xff, 0xff, 0x4b, 0x00, 0x00, 0x00, 0x00, 0x00, 0x00, 0x00,
    0x00, 0x00, 0x00, 0x00, 0x00, 0x00, 0x00, 0x00, 0x52, 0xff, 0xff, 0xff,
    0x04, 0x00, 0x00, 0x00, 0x0c, 0x00, 0x00, 0x00, 0xce, 0x82, 0xf6, 0xbb,
    0xe2, 0xff, 0xc9, 0xbc, 0x06, 0x66, 0xc0, 0x3c, 0x64, 0xfa, 0xff, 0xff,
    0x00, 0x00, 0x00, 0x00, 0x00, 0x00, 0x00, 0x00, 0x00, 0x00, 0x00, 0x00,
    0x74, 0xfa, 0xff, 0xff, 0x0f, 0x00, 0x00, 0x00, 0x4d, 0x4c, 0x49, 0x52,
    0x20, 0x43, 0x6f, 0x6e, 0x76, 0x65, 0x72, 0x74, 0x65, 0x64, 0x2e, 0x00,
    0x01, 0x00, 0x00, 0x00, 0x14, 0x00, 0x00, 0x00, 0x00, 0x00, 0x0e, 0x00,
    0x18, 0x00, 0x04, 0x00, 0x08, 0x00, 0x0c, 0x00, 0x10, 0x00, 0x14, 0x00,
    0x0e, 0x00, 0x00, 0x00, 0xa8, 0x01, 0x00, 0x00, 0x9c, 0x01, 0x00, 0x00,
    0x90, 0x01, 0x00, 0x00, 0x14, 0x00, 0x00, 0x00, 0x04, 0x00, 0x00, 0x00,
    0x04, 0x00, 0x00, 0x00, 0x6d, 0x61, 0x69, 0x6e, 0x00, 0x00, 0x00, 0x00,
    0x05, 0x00, 0x00, 0x00, 0x30, 0x01, 0x00, 0x00, 0xcc, 0x00, 0x00, 0x00,
    0x94, 0x00, 0x00, 0x00, 0x50, 0x00, 0x00, 0x00, 0x04, 0x00, 0x00, 0x00,
    0x52, 0xff, 0xff, 0xff, 0x00, 0x00, 0x00, 0x09, 0x04, 0x00, 0x00, 0x00,
    0x24, 0x00, 0x00, 0x00, 0x18, 0x00, 0x00, 0x00, 0x0c, 0x00, 0x00, 0x00,
    0x00, 0x00, 0x06, 0x00, 0x08, 0x00, 0x04, 0x00, 0x06, 0x00, 0x00, 0x00,
    0x00, 0x00, 0x80, 0x3f, 0x01, 0x00, 0x00, 0x00, 0x0a, 0x00, 0x00, 0x00,
    0x01, 0x00, 0x00, 0x00, 0x09, 0x00, 0x00, 0x00, 0x00, 0x00, 0x0e, 0x00,
    0x18, 0x00, 0x08, 0x00, 0x0c, 0x00, 0x10, 0x00, 0x07, 0x00, 0x14, 0x00,
    0x0e, 0x00, 0x00, 0x00, 0x00, 0x00, 0x00, 0x08, 0x03, 0x00, 0x00, 0x00,
    0x18, 0x00, 0x00, 0x00, 0x0c, 0x00, 0x00, 0x00, 0x04, 0x00, 0x00, 0x00,
    0x40, 0xfb, 0xff, 0xff, 0x01, 0x00, 0x00, 0x00, 0x09, 0x00, 0x00, 0x00,
    0x03, 0x00, 0x00, 0x00, 0x08, 0x00, 0x00, 0x00, 0x03, 0x00, 0x00, 0x00,
    0x01, 0x00, 0x00, 0x00, 0x00, 0x00, 0x0a, 0x00, 0x10, 0x00, 0x04, 0x00,
    0x08, 0x00, 0x0c, 0x00, 0x0a, 0x00, 0x00, 0x00, 0x02, 0x00, 0x00, 0x00,
    0x10, 0x00, 0x00, 0x00, 0x04, 0x00, 0x00, 0x00, 0x01, 0x00, 0x00, 0x00,
    0x08, 0x00, 0x00, 0x00, 0x02, 0x00, 0x00, 0x00, 0x07, 0x00, 0x00, 0x00,
    0x02, 0x00, 0x00, 0x00, 0x00, 0x00, 0x0e, 0x00, 0x1a, 0x00, 0x08, 0x00,
    0x0c, 0x00, 0x10, 0x00, 0x07, 0x00, 0x14, 0x00, 0x0e, 0x00, 0x00, 0x00,
    0x00, 0x00, 0x00, 0x05, 0x01, 0x00, 0x00, 0x00, 0x3c, 0x00, 0x00, 0x00,
    0x30, 0x00, 0x00, 0x00, 0x14, 0x00, 0x00, 0x00, 0x00, 0x00, 0x0e, 0x00,
    0x18, 0x00, 0x07, 0x00, 0x08, 0x00, 0x0c, 0x00, 0x10, 0x00, 0x14, 0x00,
    0x0e, 0x00, 0x00, 0x00, 0x00, 0x00, 0x00, 0x01, 0x01, 0x00, 0x00, 0x00,
    0x03, 0x00, 0x00, 0x00, 0x01, 0x00, 0x00, 0x00, 0x03, 0x00, 0x00, 0x00,
    0x01, 0x00, 0x00, 0x00, 0x07, 0x00, 0x00, 0x00, 0x01, 0x00, 0x00, 0x00,
    0x06, 0x00, 0x00, 0x00, 0x00, 0x00, 0x0e, 0x00, 0x16, 0x00, 0x00, 0x00,
    0x08, 0x00, 0x0c, 0x00, 0x07, 0x00, 0x10, 0x00, 0x0e, 0x00, 0x00, 0x00,
    0x00, 0x00, 0x00, 0x01, 0x2c, 0x00, 0x00, 0x00, 0x20, 0x00, 0x00, 0x00,
    0x10, 0x00, 0x00, 0x00, 0x00, 0x00, 0x0a, 0x00, 0x0c, 0x00, 0x00, 0x00,
    0x04, 0x00, 0x08, 0x00, 0x0a, 0x00, 0x00, 0x00, 0x01, 0x00, 0x00, 0x00,
    0x01, 0x00, 0x00, 0x00, 0x01, 0x00, 0x00, 0x00, 0x06, 0x00, 0x00, 0x00,
    0x03, 0x00, 0x00, 0x00, 0x00, 0x00, 0x00, 0x00, 0x04, 0x00, 0x00, 0x00,
    0x05, 0x00, 0x00, 0x00, 0x01, 0x00, 0x00, 0x00, 0x0a, 0x00, 0x00, 0x00,
    0x01, 0x00, 0x00, 0x00, 0x00, 0x00, 0x00, 0x00, 0x0b, 0x00, 0x00, 0x00,
    0x98, 0x03, 0x00, 0x00, 0x54, 0x03, 0x00, 0x00, 0x08, 0x03, 0x00, 0x00,
    0xb0, 0x02, 0x00, 0x00, 0x5c, 0x02, 0x00, 0x00, 0xe4, 0x01, 0x00, 0x00,
    0x60, 0x01, 0x00, 0x00, 0x04, 0x01, 0x00, 0x00, 0xb4, 0x00, 0x00, 0x00,
    0x4c, 0x00, 0x00, 0x00, 0x04, 0x00, 0x00, 0x00, 0xa2, 0xfc, 0xff, 0xff,
    0x34, 0x00, 0x00, 0x00, 0x0b, 0x00, 0x00, 0x00, 0x0c, 0x00, 0x00, 0x00,
    0x04, 0x00, 0x00, 0x00, 0x94, 0xfc, 0xff, 0xff, 0x19, 0x00, 0x00, 0x00,
    0x53, 0x74, 0x61, 0x74, 0x65, 0x66, 0x75, 0x6c, 0x50, 0x61, 0x72, 0x74,
    0x69, 0x74, 0x69, 0x6f, 0x6e, 0x65, 0x64, 0x43, 0x61, 0x6c, 0x6c, 0x3a,
    0x30, 0x00, 0x00, 0x00, 0x02, 0x00, 0x00, 0x00, 0x01, 0x00, 0x00, 0x00,
    0x03, 0x00, 0x00, 0x00, 0xe6, 0xfc, 0xff, 0xff, 0x54, 0x00, 0x00, 0x00,
    0x0a, 0x00, 0x00, 0x00, 0x0c, 0x00, 0x00, 0x00, 0x04, 0x00, 0x00, 0x00,
    0xd8, 0xfc, 0xff, 0xff, 0x38, 0x00, 0x00, 0x00, 0x73, 0x65, 0x71, 0x75,
    0x65, 0x6e, 0x74, 0x69, 0x61, 0x6c, 0x5f, 0x36, 0x34, 0x2f, 0x6f, 0x75,
    0x74, 0x70, 0x75, 0x74, 0x2f, 0x4d, 0x61, 0x74, 0x4d, 0x75, 0x6c, 0x3b,
    0x73, 0x65, 0x71, 0x75, 0x65, 0x6e, 0x74, 0x69, 0x61, 0x6c, 0x5f, 0x36,
    0x34, 0x2f, 0x6f, 0x75, 0x74, 0x70, 0x75, 0x74, 0x2f, 0x42, 0x69, 0x61,
    0x73, 0x41, 0x64, 0x64, 0x00, 0x00, 0x00, 0x00, 0x02, 0x00, 0x00, 0x00,
    0x01, 0x00, 0x00, 0x00, 0x03, 0x00, 0x00, 0x00, 0x4a, 0xfd, 0xff, 0xff,
    0x3c, 0x00, 0x00, 0x00, 0x09, 0x00, 0x00, 0x00, 0x0c, 0x00, 0x00, 0x00,
    0x04, 0x00, 0x00, 0x00, 0x3c, 0xfd, 0xff, 0xff, 0x20, 0x00, 0x00, 0x00,
    0x73, 0x65, 0x71, 0x75, 0x65, 0x6e, 0x74, 0x69, 0x61, 0x6c, 0x5f, 0x36,
    0x34, 0x2f, 0x66, 0x6c, 0x61, 0x74, 0x74, 0x65, 0x6e, 0x5f, 0x36, 0x34,
    0x2f, 0x52, 0x65, 0x73, 0x68, 0x61, 0x70, 0x65, 0x00, 0x00, 0x00, 0x00,
    0x02, 0x00, 0x00, 0x00, 0x01, 0x00, 0x00, 0x00, 0x4b, 0x00, 0x00, 0x00,
    0x96, 0xfd, 0xff, 0xff, 0x40, 0x00, 0x00, 0x00, 0x08, 0x00, 0x00, 0x00,
    0x0c, 0x00, 0x00, 0x00, 0x04, 0x00, 0x00, 0x00, 0x88, 0xfd, 0xff, 0xff,
    0x26, 0x00, 0x00, 0x00, 0x73, 0x65, 0x71, 0x75, 0x65, 0x6e, 0x74, 0x69,
    0x61, 0x6c, 0x5f, 0x36, 0x34, 0x2f, 0x6d, 0x61, 0x78, 0x5f, 0x70, 0x6f,
    0x6f, 0x6c, 0x69, 0x6e, 0x67, 0x32, 0x64, 0x5f, 0x36, 0x34, 0x2f, 0x4d,
    0x61, 0x78, 0x50, 0x6f, 0x6f, 0x6c, 0x00, 0x00, 0x04, 0x00, 0x00, 0x00,
    0x01, 0x00, 0x00, 0x00, 0x01, 0x00, 0x00, 0x00, 0x19, 0x00, 0x00, 0x00,
    0x03, 0x00, 0x00, 0x00, 0xee, 0xfd, 0xff, 0xff, 0x68, 0x00, 0x00, 0x00,
    0x07, 0x00, 0x00, 0x00, 0x0c, 0x00, 0x00, 0x00, 0x04, 0x00, 0x00, 0x00,
    0xe0, 0xfd, 0xff, 0xff, 0x4e, 0x00, 0x00, 0x00, 0x73, 0x65, 0x71, 0x75,
    0x65, 0x6e, 0x74, 0x69, 0x61, 0x6c, 0x5f, 0x36, 0x34, 0x2f, 0x63, 0x6f,
    0x6e, 0x76, 0x32, 0x64, 0x5f, 0x36, 0x34, 0x2f, 0x42, 0x69, 0x61, 0x73,
    0x41, 0x64, 0x64, 0x3b, 0x73, 0x65, 0x71, 0x75, 0x65, 0x6e, 0x74, 0x69,
    0x61, 0x6c, 0x5f, 0x36, 0x34, 0x2f, 0x63, 0x6f, 0x6e, 0x76, 0x32, 0x64,
    0x5f, 0x36, 0x34, 0x2f, 0x43, 0x6f, 0x6e, 0x76, 0x32, 0x44, 0x3b, 0x63,
    0x6f, 0x6e, 0x76, 0x32, 0x64, 0x5f, 0x36, 0x34, 0x2f, 0x62, 0x69, 0x61,
    0x73, 0x31, 0x00, 0x00, 0x04, 0x00, 0x00, 0x00, 0x01, 0x00, 0x00, 0x00,
    0x03, 0x00, 0x00, 0x00, 0x19, 0x00, 0x00, 0x00, 0x03, 0x00, 0x00, 0x00,
    0x6e, 0xfe, 0xff, 0xff, 0x68, 0x00, 0x00, 0x00, 0x06, 0x00, 0x00, 0x00,
    0x0c, 0x00, 0x00, 0x00, 0x04, 0x00, 0x00, 0x00, 0x60, 0xfe, 0xff, 0xff,
    0x4d, 0x00, 0x00, 0x00, 0x73, 0x65, 0x71, 0x75, 0x65, 0x6e, 0x74, 0x69,
    0x61, 0x6c, 0x5f, 0x36, 0x34, 0x2f, 0x63, 0x6f, 0x6e, 0x76, 0x32, 0x64,
    0x5f, 0x36, 0x34, 0x2f, 0x42, 0x69, 0x61, 0x73, 0x41, 0x64, 0x64, 0x3b,
    0x73, 0x65, 0x71, 0x75, 0x65, 0x6e, 0x74, 0x69, 0x61, 0x6c, 0x5f, 0x36,
    0x34, 0x2f, 0x63, 0x6f, 0x6e, 0x76, 0x32, 0x64, 0x5f, 0x36, 0x34, 0x2f,
    0x43, 0x6f, 0x6e, 0x76, 0x32, 0x44, 0x3b, 0x63, 0x6f, 0x6e, 0x76, 0x32,
    0x64, 0x5f, 0x36, 0x34, 0x2f, 0x62, 0x69, 0x61, 0x73, 0x00, 0x00, 0x00,
    0x01, 0x00, 0x00, 0x00, 0x03, 0x00, 0x00, 0x00, 0xe2, 0xfe, 0xff, 0xff,
    0x38, 0x00, 0x00, 0x00, 0x05, 0x00, 0x00, 0x00, 0x0c, 0x00, 0x00, 0x00,
    0x04, 0x00, 0x00, 0x00, 0xd4, 0xfe, 0xff, 0xff, 0x1e, 0x00, 0x00, 0x00,
    0x73, 0x65, 0x71, 0x75, 0x65, 0x6e, 0x74, 0x69, 0x61, 0x6c, 0x5f, 0x36,
    0x34, 0x2f, 0x63, 0x6f, 0x6e, 0x76, 0x32, 0x64, 0x5f, 0x36, 0x34, 0x2f,
    0x43, 0x6f, 0x6e, 0x76, 0x32, 0x44, 0x00, 0x00, 0x04, 0x00, 0x00, 0x00,
    0x03, 0x00, 0x00, 0x00, 0x03, 0x00, 0x00, 0x00, 0x19, 0x00, 0x00, 0x00,
    0x02, 0x00, 0x00, 0x00, 0x32, 0xff, 0xff, 0xff, 0x34, 0x00, 0x00, 0x00,
    0x04, 0x00, 0x00, 0x00, 0x0c, 0x00, 0x00, 0x00, 0x04, 0x00, 0x00, 0x00,
    0x24, 0xff, 0xff, 0xff, 0x1b, 0x00, 0x00, 0x00, 0x73, 0x65, 0x71, 0x75,
    0x65, 0x6e, 0x74, 0x69, 0x61, 0x6c, 0x5f, 0x36, 0x34, 0x2f, 0x6f, 0x75,
    0x74, 0x70, 0x75, 0x74, 0x2f, 0x4d, 0x61, 0x74, 0x4d, 0x75, 0x6c, 0x00,
    0x02, 0x00, 0x00, 0x00, 0x03, 0x00, 0x00, 0x00, 0x4b, 0x00, 0x00, 0x00,
    0x00, 0x00, 0x0e, 0x00, 0x18, 0x00, 0x08, 0x00, 0x07, 0x00, 0x0c, 0x00,
    0x10, 0x00, 0x14, 0x00, 0x0e, 0x00, 0x00, 0x00, 0x00, 0x00, 0x00, 0x02,
    0x38, 0x00, 0x00, 0x00, 0x03, 0x00, 0x00, 0x00, 0x0c, 0x00, 0x00, 0x00,
    0x04, 0x00, 0x00, 0x00, 0x7c, 0xff, 0xff, 0xff, 0x1e, 0x00, 0x00, 0x00,
    0x73, 0x65, 0x71, 0x75, 0x65, 0x6e, 0x74, 0x69, 0x61, 0x6c, 0x5f, 0x36,
    0x34, 0x2f, 0x66, 0x6c, 0x61, 0x74, 0x74, 0x65, 0x6e, 0x5f, 0x36, 0x34,
    0x2f, 0x43, 0x6f, 0x6e, 0x73, 0x74, 0x00, 0x00, 0x01, 0x00, 0x00, 0x00,
    0x02, 0x00, 0x00, 0x00, 0xce, 0xff, 0xff, 0xff, 0x24, 0x00, 0x00, 0x00,
    0x02, 0x00, 0x00, 0x00, 0x0c, 0x00, 0x00, 0x00, 0x04, 0x00, 0x00, 0x00,
    0xc0, 0xff, 0xff, 0xff, 0x0b, 0x00, 0x00, 0x00, 0x6f, 0x75, 0x74, 0x70,
    0x75, 0x74, 0x2f, 0x62, 0x69, 0x61, 0x73, 0x00, 0x01, 0x00, 0x00, 0x00,
    0x03, 0x00, 0x00, 0x00, 0x00, 0x00, 0x0e, 0x00, 0x14, 0x00, 0x04, 0x00,
    0x00, 0x00, 0x08, 0x00, 0x0c, 0x00, 0x10, 0x00, 0x0e, 0x00, 0x00, 0x00,
    0x30, 0x00, 0x00, 0x00, 0x01, 0x00, 0x00, 0x00, 0x10, 0x00, 0x00, 0x00,
    0x08, 0x00, 0x00, 0x00, 0x04, 0x00, 0x04, 0x00, 0x04, 0x00, 0x00, 0x00,
    0x13, 0x00, 0x00, 0x00, 0x73, 0x65, 0x72, 0x76, 0x69, 0x6e, 0x67, 0x5f,
    0x64, 0x65, 0x66, 0x61, 0x75, 0x6c, 0x74, 0x5f, 0x78, 0x3a, 0x30, 0x00,
    0x04, 0x00, 0x00, 0x00, 0x01, 0x00, 0x00, 0x00, 0x03, 0x00, 0x00, 0x00,
    0x19, 0x00, 0x00, 0x00, 0x02, 0x00, 0x00, 0x00, 0x05, 0x00, 0x00, 0x00,
    0x60, 0x00, 0x00, 0x00, 0x44, 0x00, 0x00, 0x00, 0x28, 0x00, 0x00, 0x00,
    0x14, 0x00, 0x00, 0x00, 0x04, 0x00, 0x00, 0x00, 0xd8, 0xff, 0xff, 0xff,
    0x00, 0x00, 0x00, 0x19, 0x19, 0x00, 0x00, 0x00, 0xcc, 0xff, 0xff, 0xff,
    0x00, 0x00, 0x00, 0x09, 0x09, 0x00, 0x00, 0x00, 0x09, 0x00, 0x00, 0x00,
    0xf4, 0xff, 0xff, 0xff, 0x00, 0x00, 0x00, 0x16, 0x16, 0x00, 0x00, 0x00,
    0x0c, 0x00, 0x0c, 0x00, 0x07, 0x00, 0x00, 0x00, 0x00, 0x00, 0x08, 0x00,
    0x0c, 0x00, 0x00, 0x00, 0x00, 0x00, 0x00, 0x11, 0x11, 0x00, 0x00, 0x00,
    0x0c, 0x00, 0x10, 0x00, 0x07, 0x00, 0x00, 0x00, 0x08, 0x00, 0x0c, 0x00,
    0x0c, 0x00, 0x00, 0x00, 0x00, 0x00, 0x00, 0x03, 0x05, 0x00, 0x00, 0x00,
    0x03, 0x00, 0x00, 0x00};
unsigned int model_tflite_len = 4816;
