unsigned char __ml_dataset_model_tflite[] = {
  0x20, 0x00, 0x00, 0x00, 0x54, 0x46, 0x4c, 0x33, 0x00, 0x00, 0x00, 0x00,
  0x14, 0x00, 0x20, 0x00, 0x04, 0x00, 0x08, 0x00, 0x0c, 0x00, 0x10, 0x00,
  0x14, 0x00, 0x00, 0x00, 0x18, 0x00, 0x1c, 0x00, 0x14, 0x00, 0x00, 0x00,
  0x03, 0x00, 0x00, 0x00, 0x04, 0x12, 0x00, 0x00, 0x94, 0x0c, 0x00, 0x00,
  0x7c, 0x0c, 0x00, 0x00, 0xa8, 0x00, 0x00, 0x00, 0x70, 0x00, 0x00, 0x00,
  0x04, 0x00, 0x00, 0x00, 0x01, 0x00, 0x00, 0x00, 0x04, 0x00, 0x00, 0x00,
  0xb6, 0xf2, 0xff, 0xff, 0x44, 0x00, 0x00, 0x00, 0x1c, 0x00, 0x00, 0x00,
  0x04, 0x00, 0x00, 0x00, 0x0f, 0x00, 0x00, 0x00, 0x73, 0x65, 0x72, 0x76,
  0x69, 0x6e, 0x67, 0x5f, 0x64, 0x65, 0x66, 0x61, 0x75, 0x6c, 0x74, 0x00,
  0x01, 0x00, 0x00, 0x00, 0x04, 0x00, 0x00, 0x00, 0xc4, 0xff, 0xff, 0xff,
  0x08, 0x00, 0x00, 0x00, 0x0a, 0x00, 0x00, 0x00, 0x08, 0x00, 0x00, 0x00,
  0x6f, 0x75, 0x74, 0x70, 0x75, 0x74, 0x5f, 0x30, 0x00, 0x00, 0x00, 0x00,
  0x01, 0x00, 0x00, 0x00, 0x04, 0x00, 0x00, 0x00, 0x6a, 0xf3, 0xff, 0xff,
  0x04, 0x00, 0x00, 0x00, 0x01, 0x00, 0x00, 0x00, 0x78, 0x00, 0x00, 0x00,
  0x01, 0x00, 0x00, 0x00, 0x0c, 0x00, 0x00, 0x00, 0x08, 0x00, 0x0c, 0x00,
  0x04, 0x00, 0x08, 0x00, 0x08, 0x00, 0x00, 0x00, 0x08, 0x00, 0x00, 0x00,
  0x0c, 0x00, 0x00, 0x00, 0x13, 0x00, 0x00, 0x00, 0x6d, 0x69, 0x6e, 0x5f,
  0x72, 0x75, 0x6e, 0x74, 0x69, 0x6d, 0x65, 0x5f, 0x76, 0x65, 0x72, 0x73,
  0x69, 0x6f, 0x6e, 0x00, 0x0d, 0x00, 0x00, 0x00, 0xbc, 0x0b, 0x00, 0x00,
  0xa8, 0x0b, 0x00, 0x00, 0x8c, 0x0b, 0x00, 0x00, 0x68, 0x0b, 0x00, 0x00,
  0xd4, 0x07, 0x00, 0x00, 0xb0, 0x00, 0x00, 0x00, 0x8c, 0x00, 0x00, 0x00,
  0x80, 0x00, 0x00, 0x00, 0x6c, 0x00, 0x00, 0x00, 0x58, 0x00, 0x00, 0x00,
  0x44, 0x00, 0x00, 0x00, 0x30, 0x00, 0x00, 0x00, 0x04, 0x00, 0x00, 0x00,
  0xe6, 0xf3, 0xff, 0xff, 0x04, 0x00, 0x00, 0x00, 0x10, 0x00, 0x00, 0x00,
  0x31, 0x2e, 0x35, 0x2e, 0x30, 0x00, 0x00, 0x00, 0x00, 0x00, 0x00, 0x00,
  0x00, 0x00, 0x00, 0x00, 0x00, 0x00, 0x00, 0x00, 0x00, 0x00, 0x00, 0x00,
  0x00, 0x00, 0x00, 0x00, 0x44, 0xef, 0xff, 0xff, 0x00, 0x00, 0x00, 0x00,
  0x00, 0x00, 0x00, 0x00, 0x00, 0x00, 0x00, 0x00, 0x54, 0xef, 0xff, 0xff,
  0x00, 0x00, 0x00, 0x00, 0x00, 0x00, 0x00, 0x00, 0x00, 0x00, 0x00, 0x00,
  0x64, 0xef, 0xff, 0xff, 0x00, 0x00, 0x00, 0x00, 0x00, 0x00, 0x00, 0x00,
  0x00, 0x00, 0x00, 0x00, 0x74, 0xef, 0xff, 0xff, 0x00, 0x00, 0x00, 0x00,
  0x00, 0x00, 0x00, 0x00, 0x00, 0x00, 0x00, 0x00, 0x84, 0xef, 0xff, 0xff,
  0x00, 0x00, 0x00, 0x00, 0x56, 0xf4, 0xff, 0xff, 0x04, 0x00, 0x00, 0x00,
  0x0c, 0x00, 0x00, 0x00, 0x40, 0x27, 0x5e, 0xbd, 0x48, 0x52, 0x24, 0x3c,
  0x54, 0x2e, 0x54, 0xbd, 0x00, 0x00, 0x00, 0x00, 0x00, 0x00, 0x00, 0x00,
  0x76, 0xf4, 0xff, 0xff, 0x04, 0x00, 0x00, 0x00, 0x08, 0x07, 0x00, 0x00,
  0xc8, 0xb2, 0x6d, 0x3c, 0xe5, 0x4b, 0x83, 0xbe, 0x28, 0xa8, 0x45, 0xbe,
  0xe9, 0x34, 0xe5, 0x3d, 0x66, 0x77, 0xf4, 0x3d, 0x61, 0x52, 0x01, 0x3f,
  0x5f, 0xf9, 0xae, 0x3e, 0xe3, 0xbd, 0x2c, 0x3e, 0x4b, 0xec, 0x17, 0xbe,
  0x77, 0xcf, 0x15, 0x3e, 0x51, 0xc2, 0x06, 0x3e, 0xe5, 0x9c, 0xeb, 0x3c,
  0xe5, 0xf5, 0x81, 0xbe, 0x0f, 0x3b, 0xe9, 0x3d, 0x3c, 0x18, 0x5a, 0x3e,
  0x11, 0x9f, 0x06, 0xbe, 0x95, 0x01, 0x00, 0x3f, 0x9a, 0xa5, 0xaa, 0xbe,
  0x0f, 0x53, 0xfd, 0x3c, 0x85, 0xc7, 0x51, 0xbd, 0x75, 0x06, 0x0d, 0xbe,
  0x21, 0x02, 0x53, 0x3e, 0xaa, 0x7d, 0xce, 0x3d, 0xab, 0xd1, 0x03, 0xbe,
  0x70, 0x44, 0x82, 0x3e, 0x26, 0x12, 0x0b, 0x3d, 0x4d, 0xbf, 0x0d, 0x3e,
  0x89, 0x9d, 0x45, 0x3f, 0x3a, 0xcf, 0x1e, 0x3e, 0x34, 0x61, 0xf9, 0xbd,
  0x44, 0xa9, 0x0f, 0x3f, 0x5d, 0x09, 0x82, 0x3e, 0x06, 0x3e, 0x3a, 0x3f,
  0x99, 0xd0, 0x90, 0xbc, 0x46, 0x95, 0xcb, 0xbe, 0x17, 0x8f, 0x2e, 0xbf,
  0x1d, 0xfe, 0xa5, 0xbe, 0x43, 0x59, 0x00, 0x3f, 0x7a, 0xb5, 0x00, 0x3f,
  0xac, 0x1b, 0xfa, 0x3e, 0x33, 0x32, 0xc9, 0xbe, 0xa6, 0x62, 0xa0, 0xbe,
  0x16, 0x86, 0x8d, 0x3e, 0x22, 0xad, 0x84, 0x3f, 0xbc, 0xab, 0xfb, 0xbc,
  0xea, 0x05, 0x90, 0xbe, 0x6d, 0x95, 0x99, 0x3d, 0x20, 0xba, 0x9b, 0x3e,
  0xb6, 0x10, 0x30, 0xbf, 0x2d, 0x33, 0x9e, 0xbc, 0x1f, 0x29, 0xb7, 0x3e,
  0x29, 0x95, 0xf0, 0xbe, 0x3f, 0x10, 0x16, 0x3e, 0xa5, 0x21, 0x0e, 0xbe,
  0x23, 0x8d, 0xba, 0xbe, 0xd0, 0xb2, 0xa3, 0x3e, 0x26, 0x5a, 0xa0, 0x3d,
  0xd9, 0x35, 0xc4, 0x3e, 0x75, 0x1c, 0xbc, 0x3d, 0xa1, 0x98, 0x28, 0xbe,
  0xe0, 0x82, 0x59, 0xbe, 0xb6, 0x2c, 0x22, 0xbe, 0x5d, 0x26, 0xd7, 0x3e,
  0xbc, 0x39, 0x43, 0xbe, 0x39, 0x5a, 0x05, 0x3d, 0xb1, 0x00, 0x24, 0x3e,
  0x49, 0x85, 0xb9, 0x3e, 0x0c, 0xa6, 0xa5, 0x3d, 0x96, 0x48, 0xdf, 0x3d,
  0xd8, 0xf0, 0xa0, 0xbd, 0x9e, 0xda, 0xc5, 0xbc, 0xb2, 0x72, 0x6b, 0xbd,
  0x9c, 0x3c, 0x66, 0x3d, 0xcc, 0x03, 0xaf, 0xbd, 0xc1, 0x33, 0x42, 0x3e,
  0xb0, 0x24, 0x06, 0x3f, 0xa7, 0x92, 0x04, 0x3f, 0xbf, 0x64, 0xcb, 0x3d,
  0xe1, 0x8e, 0xa7, 0x3d, 0x5f, 0xc8, 0xa6, 0xbe, 0x54, 0xd4, 0x6d, 0xbe,
  0x41, 0xe7, 0x47, 0xbf, 0xa2, 0x30, 0x48, 0xbf, 0x83, 0x82, 0xbb, 0xbf,
  0x4b, 0x96, 0xa4, 0xbe, 0x40, 0xb8, 0x37, 0xbf, 0x6e, 0xf0, 0x4f, 0xbe,
  0x5a, 0x91, 0x9d, 0xbe, 0x93, 0x4f, 0xd9, 0x3e, 0xb9, 0x56, 0x3a, 0xbf,
  0x03, 0x90, 0x46, 0xbf, 0xd9, 0x8a, 0x8c, 0xbf, 0x64, 0x5d, 0xed, 0xba,
  0x8f, 0xb1, 0xb7, 0x3e, 0x40, 0x88, 0x1f, 0x3e, 0x8e, 0xfc, 0x2c, 0xbf,
  0x93, 0x7e, 0xb1, 0xbe, 0xb2, 0x88, 0x77, 0xbe, 0xa9, 0x59, 0x24, 0xbe,
  0x25, 0xb1, 0xcd, 0xbe, 0xe1, 0x18, 0x27, 0x3c, 0xa2, 0xc9, 0xf8, 0xbd,
  0x93, 0xad, 0x4e, 0x3e, 0x72, 0xcb, 0x4f, 0xbf, 0x52, 0x02, 0x54, 0x3d,
  0xdf, 0x0a, 0xc1, 0x3c, 0xdf, 0x6b, 0x0a, 0x3e, 0xca, 0x09, 0x3e, 0x3c,
  0xaa, 0xd7, 0x47, 0x3e, 0x0f, 0x4a, 0xb0, 0x3d, 0x41, 0x5c, 0x09, 0xbe,
  0x29, 0x88, 0x4e, 0xbe, 0x58, 0xc3, 0xee, 0xbe, 0xeb, 0xda, 0x87, 0xbe,
  0x6f, 0x25, 0x12, 0xbe, 0x18, 0x2a, 0x86, 0xbe, 0x2b, 0x0b, 0x84, 0xbe,
  0x9f, 0xb7, 0xdd, 0x3d, 0xdc, 0x47, 0x82, 0x3d, 0x9f, 0x22, 0x2a, 0x3e,
  0xf9, 0xc4, 0x6e, 0x3d, 0xc6, 0x73, 0x89, 0x3e, 0xdd, 0xe6, 0xa0, 0x3d,
  0x32, 0xd4, 0x90, 0x3d, 0xce, 0xf7, 0xcf, 0x3d, 0xfa, 0x65, 0xd9, 0xbd,
  0x9b, 0x4a, 0x23, 0xbf, 0x7a, 0xe4, 0xea, 0xbe, 0x4b, 0xe0, 0x78, 0xbe,
  0xe9, 0x3c, 0x94, 0xbf, 0x37, 0x82, 0xf5, 0xbc, 0x32, 0xe1, 0x8f, 0xbf,
  0x40, 0x15, 0x07, 0xbf, 0xae, 0xee, 0x2a, 0xbe, 0x61, 0xaf, 0xe2, 0xbd,
  0x33, 0x3f, 0xdb, 0x3e, 0x5a, 0x65, 0xa1, 0xbe, 0xa9, 0xc4, 0x7d, 0xbc,
  0xe9, 0x72, 0xf8, 0xbd, 0x01, 0xc0, 0xe4, 0xbe, 0xa5, 0xe0, 0xd6, 0xbb,
  0x11, 0x26, 0x86, 0x3e, 0xb6, 0x36, 0xab, 0xbe, 0xca, 0xd3, 0x8f, 0xbd,
  0x13, 0x31, 0xe5, 0xbe, 0xc1, 0xea, 0x19, 0xbe, 0x64, 0x84, 0xb5, 0xbe,
  0x95, 0x7d, 0x77, 0xbd, 0x59, 0x97, 0x5d, 0xbf, 0xa1, 0x4b, 0x19, 0x3f,
  0x6a, 0x66, 0xdf, 0xbe, 0x8d, 0x38, 0xf7, 0xbe, 0x8a, 0x23, 0x9b, 0xbc,
  0xfc, 0x51, 0xc3, 0x3c, 0xbd, 0x1e, 0x0d, 0xbf, 0xf0, 0x81, 0x1f, 0x3e,
  0xf4, 0xcd, 0xa0, 0x3e, 0x9e, 0x6c, 0xf3, 0x3d, 0x15, 0xe0, 0xd5, 0xbd,
  0x4f, 0x71, 0xc9, 0x3d, 0xb0, 0xfe, 0x98, 0xbe, 0x92, 0x86, 0x62, 0x3e,
  0x33, 0x4b, 0x65, 0x3e, 0x4e, 0x3e, 0x68, 0xbf, 0xb0, 0x00, 0x6f, 0xbe,
  0x36, 0x65, 0x06, 0x3e, 0x78, 0xa3, 0x15, 0x3e, 0x53, 0xb3, 0x9b, 0x3e,
  0x4b, 0xa6, 0x0a, 0xbe, 0x02, 0x33, 0x78, 0x3e, 0x40, 0x69, 0x16, 0xbe,
  0x04, 0x03, 0xdd, 0xbb, 0x4b, 0x26, 0xcb, 0x3e, 0x7b, 0xcd, 0x9e, 0xbd,
  0xa4, 0xa4, 0xd5, 0x3d, 0x66, 0xc7, 0xf6, 0x3e, 0x98, 0x06, 0xfd, 0x3d,
  0xf3, 0x13, 0xe0, 0xbe, 0x3e, 0x16, 0xd6, 0x3e, 0x95, 0xb5, 0x0b, 0xbf,
  0xd9, 0x95, 0x61, 0x3e, 0x84, 0xfe, 0xb6, 0x3c, 0x0a, 0x50, 0x7f, 0xbd,
  0x5c, 0x32, 0x59, 0xbe, 0xdf, 0x74, 0x9a, 0xbe, 0x4f, 0xf8, 0xcf, 0xbe,
  0x30, 0xb0, 0xf1, 0x3d, 0xd3, 0x01, 0x33, 0xbf, 0xbf, 0xbb, 0x82, 0xbe,
  0x66, 0x93, 0xf5, 0x3e, 0x18, 0x61, 0x14, 0xbe, 0xe8, 0x85, 0x9d, 0xbe,
  0x38, 0xf3, 0x0c, 0xbf, 0x85, 0xf4, 0xe5, 0x3e, 0xcb, 0xfb, 0xf1, 0x3e,
  0x31, 0x48, 0x09, 0xbf, 0x4c, 0x22, 0x9b, 0xbe, 0x57, 0xb4, 0x88, 0xbd,
  0x60, 0x44, 0x5c, 0xbc, 0xee, 0xac, 0xbb, 0xbd, 0x2d, 0xb8, 0x84, 0xbe,
  0x2c, 0x60, 0x01, 0xbf, 0x60, 0xeb, 0x9d, 0x3d, 0x23, 0xc4, 0xce, 0xbe,
  0x7c, 0x73, 0x31, 0xbe, 0xd7, 0x25, 0xfb, 0x3e, 0x6c, 0xa8, 0x3f, 0x3e,
  0x53, 0xe1, 0x30, 0xbd, 0x5b, 0x39, 0xc2, 0x3e, 0x94, 0x9f, 0x78, 0x3e,
  0x78, 0xd4, 0x3f, 0xbc, 0xc6, 0x9e, 0x7f, 0xbe, 0x78, 0x30, 0xd3, 0xbe,
  0x88, 0xa4, 0x8b, 0xbe, 0xbc, 0xe5, 0x9f, 0xbe, 0x16, 0xb1, 0xe6, 0xbd,
  0x70, 0x27, 0x2d, 0xbf, 0xce, 0x53, 0x12, 0x3e, 0xa6, 0x33, 0xc1, 0x3e,
  0x9f, 0x57, 0x60, 0xbe, 0xd4, 0x13, 0xbe, 0xbd, 0x68, 0x7e, 0xbf, 0x3b,
  0x8a, 0x42, 0x36, 0xbd, 0x17, 0xb9, 0x06, 0x3f, 0xfe, 0x7e, 0xdc, 0xbe,
  0x8d, 0xce, 0xee, 0xbd, 0x48, 0x0e, 0x85, 0xbd, 0x65, 0xa2, 0x6f, 0xbe,
  0x96, 0x96, 0xc7, 0x3e, 0xf5, 0xe9, 0x6e, 0xbe, 0x22, 0x00, 0xf6, 0x3e,
  0x45, 0xb1, 0x4f, 0xbf, 0xec, 0xfc, 0x3e, 0x3f, 0xe3, 0xe1, 0x6a, 0xbf,
  0x24, 0xeb, 0x33, 0x3e, 0x78, 0xb4, 0x94, 0xbe, 0x2a, 0x77, 0xfc, 0x3e,
  0xa1, 0xb4, 0x2c, 0xbc, 0x31, 0xb0, 0xed, 0x3e, 0x22, 0xb3, 0x9f, 0x3e,
  0x9c, 0x02, 0xfd, 0x3d, 0xdc, 0xed, 0x8b, 0xbe, 0x53, 0xcf, 0x89, 0x3e,
  0xaf, 0x0e, 0xc9, 0xbe, 0xd3, 0x1c, 0xa4, 0xbd, 0xca, 0x43, 0x84, 0xbe,
  0x4e, 0x18, 0x16, 0x3f, 0x8b, 0x7b, 0xf9, 0x3e, 0x74, 0xdc, 0x3c, 0x3e,
  0x44, 0x5d, 0x18, 0xbf, 0x83, 0xf3, 0x27, 0xbf, 0x44, 0xa4, 0x98, 0x3e,
  0x93, 0x11, 0x0e, 0xbf, 0x66, 0xdc, 0x7d, 0xbf, 0x7d, 0x5e, 0x97, 0x3e,
  0x82, 0x8a, 0x1a, 0xbe, 0x05, 0xec, 0x61, 0xbf, 0xba, 0x48, 0xc4, 0x3e,
  0x5b, 0x57, 0x2c, 0xbf, 0x75, 0x07, 0x45, 0x3e, 0x39, 0x14, 0x1c, 0x3e,
  0x89, 0x7b, 0x53, 0xbe, 0xbf, 0xfc, 0xd5, 0x3e, 0x7b, 0xb6, 0x6e, 0xbd,
  0x70, 0xf8, 0xe3, 0x3e, 0x1b, 0x43, 0xd2, 0x3e, 0x40, 0xa1, 0x7f, 0xbe,
  0x32, 0x5d, 0x9d, 0xbe, 0xce, 0x51, 0x0c, 0x3e, 0x9d, 0x60, 0xcd, 0xbe,
  0xc2, 0x12, 0xbb, 0x3e, 0x96, 0xde, 0x33, 0x3d, 0xb1, 0x09, 0x00, 0xbd,
  0xff, 0x34, 0xdf, 0xbe, 0x82, 0xe0, 0xc2, 0x3e, 0x96, 0x14, 0x7b, 0xbe,
  0x1d, 0x10, 0x3a, 0xbf, 0xf3, 0xa0, 0xc0, 0x3e, 0xa4, 0x26, 0x24, 0x3f,
  0x82, 0x1a, 0xe0, 0x3e, 0xae, 0x02, 0xdc, 0xbe, 0xe3, 0xf1, 0x14, 0xbe,
  0x5c, 0x8d, 0x3e, 0xbf, 0xad, 0x5d, 0x04, 0x3f, 0x7c, 0xe0, 0x16, 0xbf,
  0x41, 0x8f, 0xa7, 0x3d, 0x5f, 0x0d, 0x31, 0x3e, 0xc7, 0x25, 0xf9, 0xbe,
  0x0a, 0x3f, 0xb0, 0x3d, 0x23, 0xcb, 0x31, 0x3f, 0xa2, 0x18, 0x1e, 0x3e,
  0x97, 0x99, 0x80, 0x3f, 0x72, 0x81, 0x4e, 0x3e, 0xcd, 0xbe, 0x87, 0x3c,
  0x4b, 0x65, 0x08, 0xbd, 0x8a, 0xd8, 0x35, 0xbf, 0xc6, 0xe1, 0xf7, 0xbd,
  0x7f, 0x57, 0x16, 0x3d, 0x7e, 0x1f, 0xee, 0xbe, 0xe5, 0x39, 0xa4, 0xbd,
  0x23, 0x99, 0xa4, 0xbe, 0x23, 0x09, 0x54, 0xbd, 0x3d, 0xe8, 0x43, 0x3e,
  0xb3, 0xbb, 0xc2, 0x3e, 0xb1, 0x85, 0x98, 0x3e, 0x37, 0xa0, 0x63, 0xbd,
  0x38, 0xe3, 0x73, 0xbe, 0x65, 0xa7, 0x3b, 0x3e, 0xdf, 0x20, 0x08, 0x3f,
  0xcb, 0x20, 0x83, 0xbd, 0xe6, 0xc4, 0x40, 0x3e, 0x02, 0x8e, 0x5a, 0x3e,
  0x04, 0xc2, 0xae, 0xbe, 0x44, 0x01, 0xbf, 0xbe, 0x86, 0xa6, 0x8c, 0x3e,
  0xcb, 0x5c, 0xa9, 0x3e, 0x95, 0xc8, 0x31, 0xbe, 0x2a, 0x7e, 0x9e, 0x3d,
  0xc6, 0x39, 0xd4, 0x3e, 0x23, 0x13, 0x96, 0x3e, 0xa5, 0xf1, 0x8f, 0x3e,
  0x95, 0x6b, 0xca, 0x3c, 0x0d, 0xb1, 0x24, 0x3f, 0x31, 0xd2, 0x67, 0x3e,
  0xa6, 0x41, 0xea, 0x3d, 0xd5, 0x70, 0x3e, 0xbf, 0xae, 0x22, 0x9c, 0xbc,
  0xc5, 0x2f, 0xd2, 0x3c, 0x99, 0x5b, 0x20, 0x3e, 0x48, 0x1f, 0x01, 0xbf,
  0x74, 0x32, 0xeb, 0x3e, 0x2b, 0x78, 0x8d, 0x3d, 0xac, 0xb0, 0x9a, 0xbd,
  0xcf, 0x3a, 0x50, 0x3f, 0x1e, 0x22, 0xbf, 0xbe, 0xc8, 0x74, 0xc4, 0xbe,
  0xb3, 0xc2, 0x51, 0x3d, 0x27, 0x8c, 0xa3, 0xbe, 0x56, 0x22, 0x5d, 0xbf,
  0xf6, 0x92, 0x30, 0x3e, 0xf8, 0xd2, 0x28, 0x3f, 0xb3, 0xf9, 0x14, 0x3e,
  0xb2, 0x97, 0xc8, 0x3e, 0x2c, 0x18, 0x2d, 0xbd, 0xa1, 0x1b, 0xc6, 0xbe,
  0x8b, 0x37, 0x35, 0x3f, 0x76, 0xac, 0x8a, 0x3e, 0x23, 0x01, 0x6a, 0x3f,
  0x15, 0xc7, 0x12, 0xbf, 0xd5, 0x44, 0xb8, 0xbe, 0x40, 0x83, 0x8c, 0x3e,
  0x84, 0xdb, 0x25, 0xba, 0x07, 0x57, 0xf4, 0x3e, 0x93, 0xbd, 0x8f, 0x3d,
  0x37, 0x8d, 0xc9, 0xbd, 0x5c, 0x4a, 0xb0, 0xbe, 0x08, 0x28, 0x88, 0x3e,
  0x1e, 0x25, 0x81, 0xbe, 0x67, 0xb9, 0xa0, 0x3e, 0xbf, 0x9d, 0x51, 0x3e,
  0x08, 0xd2, 0xad, 0x3e, 0xe5, 0x9c, 0x9a, 0xbe, 0x9b, 0x78, 0x27, 0x3f,
  0x27, 0xdb, 0xc7, 0x3e, 0x9b, 0xef, 0x0e, 0x3e, 0x01, 0x2c, 0x11, 0xbe,
  0xc3, 0x3d, 0xd0, 0x3e, 0x20, 0x98, 0x63, 0xbe, 0xf9, 0x54, 0x9d, 0x3e,
  0x25, 0x8e, 0x78, 0x3e, 0xcb, 0xdc, 0xea, 0xbd, 0xfa, 0x2f, 0x39, 0x3e,
  0x10, 0x9e, 0x91, 0x3e, 0xc9, 0xc6, 0x88, 0x3e, 0xb5, 0xf8, 0x09, 0x3f,
  0xfb, 0x33, 0x64, 0x3e, 0x52, 0xd2, 0xf8, 0x3e, 0xce, 0x95, 0x49, 0x3e,
  0xb6, 0x0f, 0x0e, 0x3f, 0x21, 0x46, 0x85, 0xbe, 0x4f, 0x44, 0xb6, 0xbe,
  0x22, 0xd5, 0x1e, 0xbf, 0x6d, 0xef, 0xb1, 0xbe, 0x19, 0x7a, 0xc4, 0x3e,
  0xe4, 0x78, 0x8f, 0x3e, 0xd4, 0x85, 0xaa, 0x3e, 0xda, 0x97, 0x10, 0xbf,
  0x49, 0x5e, 0x00, 0xbf, 0xa9, 0x98, 0x97, 0x3d, 0x55, 0xd6, 0x02, 0x3f,
  0x41, 0x32, 0xa1, 0xbe, 0x14, 0x88, 0x95, 0x3d, 0x31, 0x6a, 0x82, 0xbd,
  0xf3, 0xa0, 0xaa, 0xbe, 0x09, 0xdd, 0x12, 0xbf, 0x90, 0x07, 0x68, 0x3f,
  0xbb, 0xb5, 0x0b, 0xbf, 0xd5, 0x15, 0x8e, 0xbe, 0x6f, 0xa0, 0x9a, 0xbe,
  0x01, 0x64, 0x7e, 0x3e, 0x1d, 0x2e, 0x20, 0x3e, 0x78, 0xb5, 0xef, 0x3d,
  0x45, 0x96, 0xa1, 0xbe, 0xf8, 0x55, 0x8b, 0xbe, 0xd6, 0xed, 0xce, 0x3e,
  0xa1, 0x24, 0x9c, 0x3e, 0xf1, 0xeb, 0x3a, 0x3e, 0x83, 0xf4, 0x35, 0x3e,
  0x1f, 0xe5, 0xe2, 0x3e, 0x99, 0x08, 0x9f, 0xbd, 0x90, 0x77, 0x4a, 0xbf,
  0xdb, 0xbc, 0x53, 0x3e, 0x5a, 0x1f, 0x97, 0xbd, 0x3c, 0xe9, 0x94, 0xbd,
  0x30, 0x41, 0x36, 0x3f, 0xa1, 0x93, 0x56, 0x3d, 0x80, 0x3c, 0xab, 0x3e,
  0x8b, 0x77, 0xb6, 0xbe, 0x63, 0x6f, 0x9c, 0xbe, 0x77, 0x54, 0xa3, 0xbe,
  0xe9, 0xdb, 0x2b, 0x3e, 0x28, 0xbb, 0x2f, 0x3f, 0x3b, 0xc9, 0xe6, 0x3e,
  0x97, 0x6b, 0x82, 0xbd, 0x9a, 0x75, 0x05, 0xbe, 0xe0, 0x45, 0x8d, 0x3e,
  0x89, 0x86, 0x80, 0x3e, 0xa8, 0xb3, 0x8d, 0xbd, 0xf6, 0x99, 0x49, 0x3d,
  0xa6, 0x80, 0x8e, 0x3e, 0xa3, 0xaa, 0x16, 0xbc, 0x26, 0xa0, 0x3b, 0xbf,
  0xc4, 0x33, 0x40, 0xbf, 0xd1, 0x92, 0x07, 0x3e, 0xde, 0xb3, 0x0a, 0xbf,
  0x32, 0x8c, 0xde, 0xbc, 0x7d, 0x5e, 0x09, 0xbe, 0x01, 0x69, 0x58, 0x3e,
  0x14, 0x91, 0x2f, 0x3e, 0x19, 0x3b, 0xcc, 0x3f, 0xb5, 0x51, 0x80, 0xbe,
  0x4c, 0x6f, 0xba, 0x3e, 0xb8, 0x16, 0xa1, 0xbe, 0x0b, 0x17, 0x11, 0xbf,
  0xec, 0x32, 0x80, 0x3c, 0xfa, 0xd3, 0xba, 0xbd, 0x7d, 0xbb, 0xe3, 0xbe,
  0x4c, 0x78, 0xa6, 0xbe, 0xa0, 0x44, 0x3b, 0xbe, 0x30, 0x02, 0xce, 0x3d,
  0x00, 0x00, 0x00, 0x00, 0x00, 0x00, 0x00, 0x00, 0x00, 0x00, 0x00, 0x00,
  0x96, 0xfb, 0xff, 0xff, 0x04, 0x00, 0x00, 0x00, 0x84, 0x03, 0x00, 0x00,
  0xfd, 0x88, 0x30, 0xbf, 0xcb, 0x3d, 0xf6, 0x3e, 0x08, 0xcd, 0x12, 0x3f,
  0x76, 0xfc, 0x3a, 0xbd, 0x7c, 0xe9, 0xf0, 0xbe, 0x49, 0xd3, 0x85, 0x3e,
  0x64, 0xd0, 0x13, 0xbe, 0x8c, 0x60, 0x18, 0xbf, 0x77, 0x15, 0x3c, 0xbe,
  0xda, 0x99, 0x25, 0xbf, 0xc3, 0x61, 0xe8, 0xbe, 0x9e, 0x7c, 0x45, 0x3e,
  0xa4, 0xcb, 0x8e, 0x3d, 0x4a, 0x48, 0x46, 0xbf, 0xd8, 0xfc, 0x48, 0x3f,
  0x4d, 0x7c, 0xe2, 0xbc, 0x94, 0x03, 0x1c, 0xbe, 0xf6, 0x6d, 0x57, 0x3e,
  0x0a, 0xa7, 0xa2, 0x3f, 0x85, 0x8d, 0x25, 0xbe, 0xe4, 0x73, 0x87, 0x3e,
  0xe7, 0xc3, 0xc4, 0x3d, 0xc4, 0x19, 0x67, 0xbf, 0xb7, 0x10, 0x07, 0x3f,
  0x2c, 0xb4, 0xb6, 0x3e, 0x9e, 0x88, 0x06, 0xbf, 0x4f, 0x77, 0xe4, 0x3e,
  0x15, 0x52, 0x43, 0xbe, 0xbd, 0xe7, 0xa0, 0xbe, 0x28, 0xe8, 0xff, 0xbd,
  0x50, 0xd8, 0xa0, 0xbe, 0xd0, 0xb6, 0x9b, 0xbe, 0x3e, 0xc2, 0x12, 0x3f,
  0x91, 0x00, 0x22, 0x3e, 0x9b, 0x0d, 0x47, 0x3f, 0x8e, 0x4f, 0x67, 0xbd,
  0xa4, 0x19, 0x58, 0x3f, 0x36, 0xa1, 0x99, 0xbd, 0x89, 0xc8, 0x13, 0x3e,
  0x47, 0x07, 0xc0, 0x3e, 0xd9, 0x0d, 0xbe, 0xbe, 0x31, 0x9e, 0xe6, 0x3e,
  0x2b, 0xf0, 0xd3, 0x3e, 0x83, 0x4c, 0x4c, 0xbf, 0x82, 0xe2, 0xcd, 0x3d,
  0xed, 0x29, 0x6d, 0xbe, 0x8f, 0x20, 0x5e, 0xbf, 0x4c, 0x0d, 0x54, 0xbf,
  0xd8, 0x71, 0x10, 0xbf, 0x5a, 0x15, 0x47, 0xbf, 0x4c, 0x8b, 0xcb, 0x3d,
  0xf1, 0xad, 0xd4, 0xbc, 0x1b, 0x43, 0x2c, 0xbf, 0xb3, 0x23, 0xc8, 0xbe,
  0x21, 0xd8, 0x60, 0xbe, 0x63, 0x13, 0xe0, 0xbe, 0x37, 0x5a, 0x06, 0xbe,
  0x9e, 0xb2, 0x0f, 0xbe, 0x67, 0x56, 0xe2, 0xbe, 0x24, 0x13, 0x0a, 0xbf,
  0x52, 0x5e, 0x84, 0xbe, 0x65, 0x0e, 0x31, 0xbf, 0x62, 0x9d, 0x9a, 0xbe,
  0x3f, 0xe6, 0x66, 0xbd, 0x37, 0xf7, 0xbe, 0xbe, 0x85, 0x5d, 0x23, 0xbf,
  0x50, 0x24, 0x52, 0xbe, 0x0c, 0x66, 0x95, 0xbe, 0x65, 0x81, 0xd1, 0xbe,
  0xee, 0xa2, 0x20, 0xbf, 0x87, 0xac, 0xb2, 0xbe, 0xe6, 0x37, 0x52, 0xbf,
  0x36, 0xb2, 0xab, 0xbe, 0xdf, 0xe3, 0xf2, 0xbe, 0x93, 0x6d, 0x53, 0xbf,
  0xc1, 0x6e, 0x33, 0xbe, 0xbc, 0x45, 0x5c, 0x3f, 0x51, 0xbc, 0xca, 0x3e,
  0x8b, 0x65, 0xb7, 0xbd, 0xbd, 0x03, 0x27, 0x3f, 0x31, 0xc1, 0x9c, 0x3e,
  0x4d, 0x66, 0xee, 0xbe, 0x26, 0x5a, 0x78, 0x3e, 0x84, 0x39, 0xb8, 0xbe,
  0xd5, 0x4c, 0x47, 0x3e, 0xe1, 0x71, 0x99, 0xbc, 0xb3, 0x84, 0x07, 0x3f,
  0x36, 0xba, 0xe3, 0x3c, 0x85, 0x5d, 0x51, 0x3f, 0x38, 0x9e, 0xa0, 0xbf,
  0xe8, 0x96, 0x86, 0xbf, 0x09, 0x43, 0xd3, 0xbe, 0xbb, 0xfb, 0x90, 0xbe,
  0xca, 0x3f, 0x56, 0xbf, 0x16, 0xa2, 0x86, 0xbf, 0x7c, 0xee, 0x9b, 0x3d,
  0xb6, 0x65, 0x40, 0x3f, 0xf9, 0x15, 0x40, 0x3f, 0x2f, 0x54, 0x6d, 0x3e,
  0x8d, 0xf5, 0x43, 0xbf, 0x48, 0x96, 0xad, 0x3e, 0x48, 0x15, 0xe4, 0xbe,
  0x90, 0xe6, 0x07, 0xbf, 0x8a, 0x9a, 0x16, 0x3f, 0x17, 0x96, 0x0b, 0xbf,
  0x03, 0x38, 0x15, 0x3f, 0x73, 0x61, 0x49, 0xbe, 0x89, 0x23, 0x7f, 0xbf,
  0x94, 0x5b, 0xfe, 0xbc, 0x21, 0xd2, 0x27, 0x3f, 0x05, 0xd9, 0x87, 0x3e,
  0x02, 0x35, 0x0e, 0xbf, 0x51, 0xf9, 0x64, 0xbd, 0x11, 0x49, 0x16, 0xbf,
  0xd2, 0xdb, 0x8f, 0xbc, 0x50, 0x23, 0x67, 0x3f, 0xdf, 0x94, 0x90, 0xbf,
  0x09, 0x33, 0xa8, 0xbe, 0x41, 0x94, 0x4d, 0xbe, 0x7c, 0xac, 0x61, 0xbd,
  0x38, 0x20, 0x87, 0xbe, 0x46, 0xdc, 0x01, 0x3f, 0xe2, 0xe8, 0x8a, 0x3e,
  0xc2, 0xc1, 0x0e, 0x3f, 0x82, 0xda, 0x41, 0x3f, 0x4d, 0x84, 0x9d, 0x3e,
  0xa4, 0x08, 0x11, 0xbf, 0x0a, 0xd9, 0x37, 0x3f, 0xfe, 0xcd, 0xb4, 0x3e,
  0x20, 0x43, 0x33, 0xbf, 0x42, 0x21, 0xaa, 0x3e, 0x83, 0x8d, 0xdc, 0xbd,
  0xdd, 0xdc, 0x00, 0xbf, 0x72, 0x32, 0xa5, 0xbd, 0xe9, 0xb3, 0xbb, 0x3c,
  0x92, 0xd6, 0xdd, 0xbe, 0x72, 0x89, 0x24, 0x3f, 0x9e, 0xcf, 0x0c, 0x3f,
  0x53, 0xdd, 0x51, 0xbe, 0x8f, 0x1f, 0x36, 0x3e, 0xf9, 0x39, 0x6a, 0x3f,
  0xb4, 0xb9, 0x29, 0x3e, 0xb1, 0xd2, 0x50, 0x3d, 0x56, 0x2b, 0x06, 0x3e,
  0x06, 0x00, 0x00, 0xbe, 0x44, 0x19, 0x7d, 0x3e, 0x27, 0xa0, 0x38, 0x3f,
  0x05, 0xd8, 0xc8, 0x3e, 0x66, 0x95, 0x91, 0x3e, 0x12, 0x08, 0xbe, 0xbd,
  0x85, 0xf6, 0x14, 0x3f, 0x33, 0x1f, 0xb4, 0xbf, 0x2a, 0x1c, 0x2d, 0xbf,
  0x44, 0xaf, 0x6d, 0x3e, 0x7f, 0x00, 0xd4, 0xbc, 0xc3, 0x84, 0x1d, 0xbd,
  0x82, 0xfd, 0x38, 0x3f, 0xe9, 0x91, 0x5a, 0x3f, 0xc0, 0x66, 0xbf, 0x3d,
  0x88, 0x28, 0xc5, 0x3e, 0x76, 0xf7, 0x3d, 0x3f, 0x81, 0x44, 0xa0, 0xbe,
  0x64, 0xc6, 0x26, 0x3d, 0xc3, 0x40, 0x16, 0xbf, 0xef, 0xc2, 0x0a, 0xbd,
  0x64, 0x5e, 0x0e, 0x3f, 0xd0, 0x33, 0x1b, 0x3f, 0x09, 0x7c, 0x8f, 0xbd,
  0x88, 0xba, 0x99, 0xbe, 0x99, 0xb8, 0x5d, 0x3f, 0x72, 0x8d, 0x9f, 0xbe,
  0x0b, 0xd8, 0x4e, 0xbf, 0x2d, 0xb6, 0x61, 0x3e, 0x7b, 0xe0, 0x29, 0xbf,
  0xd9, 0x54, 0xce, 0x3e, 0x18, 0xbe, 0xbe, 0x3e, 0x89, 0x09, 0x4a, 0x3e,
  0x32, 0xa3, 0x69, 0x3e, 0x3a, 0xdb, 0xb3, 0xbe, 0xe2, 0xd8, 0xeb, 0x3e,
  0x4c, 0x45, 0xac, 0x3e, 0x9c, 0x98, 0x21, 0x3f, 0x34, 0x5f, 0x9c, 0x3d,
  0x66, 0x24, 0xf3, 0xbe, 0x63, 0xd1, 0x15, 0xbf, 0xc3, 0x82, 0xf0, 0xbe,
  0xef, 0x7f, 0x29, 0xbf, 0x0e, 0xbf, 0xe5, 0xbe, 0xda, 0x15, 0xc8, 0x3e,
  0xdb, 0xb4, 0x11, 0xbf, 0x39, 0x04, 0x4e, 0xbe, 0x9b, 0x1d, 0x37, 0x3f,
  0x2c, 0xb4, 0x4d, 0xbe, 0x87, 0x61, 0x17, 0x3e, 0x38, 0xb9, 0xf0, 0xbd,
  0xaa, 0xd9, 0xc5, 0x3e, 0x12, 0xa6, 0x7d, 0x3d, 0x2e, 0xed, 0x01, 0x3f,
  0xa7, 0xea, 0x94, 0x3c, 0x3b, 0x91, 0x0e, 0xbf, 0x52, 0xef, 0xc7, 0xbe,
  0x2f, 0x2f, 0xfb, 0x3e, 0xe2, 0x72, 0xef, 0xbe, 0xba, 0x60, 0x73, 0xbe,
  0x5c, 0xe3, 0x40, 0x3f, 0x01, 0x8a, 0xf5, 0xbd, 0x0f, 0x4b, 0xe4, 0x3e,
  0x18, 0xea, 0x29, 0x3f, 0x78, 0x2e, 0x2f, 0x3e, 0x70, 0x19, 0x16, 0xbe,
  0x8b, 0x66, 0x5c, 0x3e, 0xa0, 0x3d, 0x3e, 0x3e, 0x37, 0xc1, 0xbc, 0xbe,
  0x5b, 0xad, 0x8a, 0x3e, 0x40, 0x11, 0x24, 0x3e, 0x92, 0x3c, 0x79, 0xbe,
  0x25, 0xcd, 0x40, 0xbe, 0xc6, 0x18, 0x92, 0x3e, 0x94, 0x07, 0xad, 0xbe,
  0x7e, 0x9e, 0x75, 0x3e, 0xe7, 0xbb, 0xce, 0xbc, 0x4e, 0x51, 0x21, 0xbf,
  0xb1, 0x7e, 0x00, 0xbf, 0xff, 0x82, 0x4e, 0xbe, 0x59, 0x55, 0xeb, 0x3e,
  0x26, 0xff, 0xff, 0xff, 0x04, 0x00, 0x00, 0x00, 0x08, 0x00, 0x00, 0x00,
  0xff, 0xff, 0xff, 0xff, 0x4b, 0x00, 0x00, 0x00, 0x00, 0x00, 0x00, 0x00,
  0x00, 0x00, 0x00, 0x00, 0x00, 0x00, 0x00, 0x00, 0x46, 0xff, 0xff, 0xff,
  0x04, 0x00, 0x00, 0x00, 0x0c, 0x00, 0x00, 0x00, 0xa1, 0x75, 0xae, 0xbc,
  0x1f, 0x18, 0x5a, 0x3d, 0x9f, 0x1d, 0xf6, 0xbc, 0x94, 0xfa, 0xff, 0xff,
  0x00, 0x00, 0x00, 0x00, 0x00, 0x00, 0x00, 0x00, 0x00, 0x00, 0x00, 0x00,
  0xa4, 0xfa, 0xff, 0xff, 0x00, 0x00, 0x00, 0x00, 0x00, 0x00, 0x00, 0x00,
  0x00, 0x00, 0x00, 0x00, 0x0f, 0x00, 0x00, 0x00, 0x4d, 0x4c, 0x49, 0x52,
  0x20, 0x43, 0x6f, 0x6e, 0x76, 0x65, 0x72, 0x74, 0x65, 0x64, 0x2e, 0x00,
  0x01, 0x00, 0x00, 0x00, 0x14, 0x00, 0x00, 0x00, 0x00, 0x00, 0x0e, 0x00,
  0x18, 0x00, 0x04, 0x00, 0x08, 0x00, 0x0c, 0x00, 0x10, 0x00, 0x14, 0x00,
  0x0e, 0x00, 0x00, 0x00, 0xa8, 0x01, 0x00, 0x00, 0x9c, 0x01, 0x00, 0x00,
  0x90, 0x01, 0x00, 0x00, 0x14, 0x00, 0x00, 0x00, 0x04, 0x00, 0x00, 0x00,
  0x04, 0x00, 0x00, 0x00, 0x6d, 0x61, 0x69, 0x6e, 0x00, 0x00, 0x00, 0x00,
  0x05, 0x00, 0x00, 0x00, 0x30, 0x01, 0x00, 0x00, 0xcc, 0x00, 0x00, 0x00,
  0x94, 0x00, 0x00, 0x00, 0x50, 0x00, 0x00, 0x00, 0x04, 0x00, 0x00, 0x00,
  0x52, 0xff, 0xff, 0xff, 0x00, 0x00, 0x00, 0x09, 0x04, 0x00, 0x00, 0x00,
  0x24, 0x00, 0x00, 0x00, 0x18, 0x00, 0x00, 0x00, 0x0c, 0x00, 0x00, 0x00,
  0x00, 0x00, 0x06, 0x00, 0x08, 0x00, 0x04, 0x00, 0x06, 0x00, 0x00, 0x00,
  0x00, 0x00, 0x80, 0x3f, 0x01, 0x00, 0x00, 0x00, 0x0a, 0x00, 0x00, 0x00,
  0x01, 0x00, 0x00, 0x00, 0x09, 0x00, 0x00, 0x00, 0x00, 0x00, 0x0e, 0x00,
  0x18, 0x00, 0x08, 0x00, 0x0c, 0x00, 0x10, 0x00, 0x07, 0x00, 0x14, 0x00,
  0x0e, 0x00, 0x00, 0x00, 0x00, 0x00, 0x00, 0x08, 0x03, 0x00, 0x00, 0x00,
  0x18, 0x00, 0x00, 0x00, 0x0c, 0x00, 0x00, 0x00, 0x04, 0x00, 0x00, 0x00,
  0x7c, 0xfb, 0xff, 0xff, 0x01, 0x00, 0x00, 0x00, 0x09, 0x00, 0x00, 0x00,
  0x03, 0x00, 0x00, 0x00, 0x08, 0x00, 0x00, 0x00, 0x03, 0x00, 0x00, 0x00,
  0x01, 0x00, 0x00, 0x00, 0x00, 0x00, 0x0a, 0x00, 0x10, 0x00, 0x04, 0x00,
  0x08, 0x00, 0x0c, 0x00, 0x0a, 0x00, 0x00, 0x00, 0x02, 0x00, 0x00, 0x00,
  0x10, 0x00, 0x00, 0x00, 0x04, 0x00, 0x00, 0x00, 0x01, 0x00, 0x00, 0x00,
  0x08, 0x00, 0x00, 0x00, 0x02, 0x00, 0x00, 0x00, 0x07, 0x00, 0x00, 0x00,
  0x02, 0x00, 0x00, 0x00, 0x00, 0x00, 0x0e, 0x00, 0x1a, 0x00, 0x08, 0x00,
  0x0c, 0x00, 0x10, 0x00, 0x07, 0x00, 0x14, 0x00, 0x0e, 0x00, 0x00, 0x00,
  0x00, 0x00, 0x00, 0x05, 0x01, 0x00, 0x00, 0x00, 0x3c, 0x00, 0x00, 0x00,
  0x30, 0x00, 0x00, 0x00, 0x14, 0x00, 0x00, 0x00, 0x00, 0x00, 0x0e, 0x00,
  0x18, 0x00, 0x07, 0x00, 0x08, 0x00, 0x0c, 0x00, 0x10, 0x00, 0x14, 0x00,
  0x0e, 0x00, 0x00, 0x00, 0x00, 0x00, 0x00, 0x01, 0x01, 0x00, 0x00, 0x00,
  0x03, 0x00, 0x00, 0x00, 0x01, 0x00, 0x00, 0x00, 0x03, 0x00, 0x00, 0x00,
  0x01, 0x00, 0x00, 0x00, 0x07, 0x00, 0x00, 0x00, 0x01, 0x00, 0x00, 0x00,
  0x06, 0x00, 0x00, 0x00, 0x00, 0x00, 0x0e, 0x00, 0x16, 0x00, 0x00, 0x00,
  0x08, 0x00, 0x0c, 0x00, 0x07, 0x00, 0x10, 0x00, 0x0e, 0x00, 0x00, 0x00,
  0x00, 0x00, 0x00, 0x01, 0x2c, 0x00, 0x00, 0x00, 0x20, 0x00, 0x00, 0x00,
  0x10, 0x00, 0x00, 0x00, 0x00, 0x00, 0x0a, 0x00, 0x0c, 0x00, 0x00, 0x00,
  0x04, 0x00, 0x08, 0x00, 0x0a, 0x00, 0x00, 0x00, 0x01, 0x00, 0x00, 0x00,
  0x01, 0x00, 0x00, 0x00, 0x01, 0x00, 0x00, 0x00, 0x06, 0x00, 0x00, 0x00,
  0x03, 0x00, 0x00, 0x00, 0x00, 0x00, 0x00, 0x00, 0x04, 0x00, 0x00, 0x00,
  0x05, 0x00, 0x00, 0x00, 0x01, 0x00, 0x00, 0x00, 0x0a, 0x00, 0x00, 0x00,
  0x01, 0x00, 0x00, 0x00, 0x00, 0x00, 0x00, 0x00, 0x0b, 0x00, 0x00, 0x00,
  0x5c, 0x03, 0x00, 0x00, 0x18, 0x03, 0x00, 0x00, 0xd0, 0x02, 0x00, 0x00,
  0x78, 0x02, 0x00, 0x00, 0x28, 0x02, 0x00, 0x00, 0xc0, 0x01, 0x00, 0x00,
  0x4c, 0x01, 0x00, 0x00, 0xf4, 0x00, 0x00, 0x00, 0xac, 0x00, 0x00, 0x00,
  0x4c, 0x00, 0x00, 0x00, 0x04, 0x00, 0x00, 0x00, 0xde, 0xfc, 0xff, 0xff,
  0x34, 0x00, 0x00, 0x00, 0x0b, 0x00, 0x00, 0x00, 0x0c, 0x00, 0x00, 0x00,
  0x04, 0x00, 0x00, 0x00, 0xd0, 0xfc, 0xff, 0xff, 0x19, 0x00, 0x00, 0x00,
  0x53, 0x74, 0x61, 0x74, 0x65, 0x66, 0x75, 0x6c, 0x50, 0x61, 0x72, 0x74,
  0x69, 0x74, 0x69, 0x6f, 0x6e, 0x65, 0x64, 0x43, 0x61, 0x6c, 0x6c, 0x3a,
  0x30, 0x00, 0x00, 0x00, 0x02, 0x00, 0x00, 0x00, 0x01, 0x00, 0x00, 0x00,
  0x03, 0x00, 0x00, 0x00, 0x22, 0xfd, 0xff, 0xff, 0x4c, 0x00, 0x00, 0x00,
  0x0a, 0x00, 0x00, 0x00, 0x0c, 0x00, 0x00, 0x00, 0x04, 0x00, 0x00, 0x00,
  0x14, 0xfd, 0xff, 0xff, 0x32, 0x00, 0x00, 0x00, 0x73, 0x65, 0x71, 0x75,
  0x65, 0x6e, 0x74, 0x69, 0x61, 0x6c, 0x2f, 0x6f, 0x75, 0x74, 0x70, 0x75,
  0x74, 0x2f, 0x4d, 0x61, 0x74, 0x4d, 0x75, 0x6c, 0x3b, 0x73, 0x65, 0x71,
  0x75, 0x65, 0x6e, 0x74, 0x69, 0x61, 0x6c, 0x2f, 0x6f, 0x75, 0x74, 0x70,
  0x75, 0x74, 0x2f, 0x42, 0x69, 0x61, 0x73, 0x41, 0x64, 0x64, 0x00, 0x00,
  0x02, 0x00, 0x00, 0x00, 0x01, 0x00, 0x00, 0x00, 0x03, 0x00, 0x00, 0x00,
  0x7e, 0xfd, 0xff, 0xff, 0x34, 0x00, 0x00, 0x00, 0x09, 0x00, 0x00, 0x00,
  0x0c, 0x00, 0x00, 0x00, 0x04, 0x00, 0x00, 0x00, 0x70, 0xfd, 0xff, 0xff,
  0x1a, 0x00, 0x00, 0x00, 0x73, 0x65, 0x71, 0x75, 0x65, 0x6e, 0x74, 0x69,
  0x61, 0x6c, 0x2f, 0x66, 0x6c, 0x61, 0x74, 0x74, 0x65, 0x6e, 0x2f, 0x52,
  0x65, 0x73, 0x68, 0x61, 0x70, 0x65, 0x00, 0x00, 0x02, 0x00, 0x00, 0x00,
  0x01, 0x00, 0x00, 0x00, 0x4b, 0x00, 0x00, 0x00, 0xc2, 0xfd, 0xff, 0xff,
  0x3c, 0x00, 0x00, 0x00, 0x08, 0x00, 0x00, 0x00, 0x0c, 0x00, 0x00, 0x00,
  0x04, 0x00, 0x00, 0x00, 0xb4, 0xfd, 0xff, 0xff, 0x20, 0x00, 0x00, 0x00,
  0x73, 0x65, 0x71, 0x75, 0x65, 0x6e, 0x74, 0x69, 0x61, 0x6c, 0x2f, 0x6d,
  0x61, 0x78, 0x5f, 0x70, 0x6f, 0x6f, 0x6c, 0x69, 0x6e, 0x67, 0x32, 0x64,
  0x2f, 0x4d, 0x61, 0x78, 0x50, 0x6f, 0x6f, 0x6c, 0x00, 0x00, 0x00, 0x00,
  0x04, 0x00, 0x00, 0x00, 0x01, 0x00, 0x00, 0x00, 0x01, 0x00, 0x00, 0x00,
  0x19, 0x00, 0x00, 0x00, 0x03, 0x00, 0x00, 0x00, 0x16, 0xfe, 0xff, 0xff,
  0x58, 0x00, 0x00, 0x00, 0x07, 0x00, 0x00, 0x00, 0x0c, 0x00, 0x00, 0x00,
  0x04, 0x00, 0x00, 0x00, 0x08, 0xfe, 0xff, 0xff, 0x3f, 0x00, 0x00, 0x00,
  0x73, 0x65, 0x71, 0x75, 0x65, 0x6e, 0x74, 0x69, 0x61, 0x6c, 0x2f, 0x63,
  0x6f, 0x6e, 0x76, 0x32, 0x64, 0x2f, 0x42, 0x69, 0x61, 0x73, 0x41, 0x64,
  0x64, 0x3b, 0x73, 0x65, 0x71, 0x75, 0x65, 0x6e, 0x74, 0x69, 0x61, 0x6c,
  0x2f, 0x63, 0x6f, 0x6e, 0x76, 0x32, 0x64, 0x2f, 0x43, 0x6f, 0x6e, 0x76,
  0x32, 0x44, 0x3b, 0x63, 0x6f, 0x6e, 0x76, 0x32, 0x64, 0x2f, 0x62, 0x69,
  0x61, 0x73, 0x31, 0x00, 0x04, 0x00, 0x00, 0x00, 0x01, 0x00, 0x00, 0x00,
  0x03, 0x00, 0x00, 0x00, 0x19, 0x00, 0x00, 0x00, 0x03, 0x00, 0x00, 0x00,
  0x86, 0xfe, 0xff, 0xff, 0x58, 0x00, 0x00, 0x00, 0x06, 0x00, 0x00, 0x00,
  0x0c, 0x00, 0x00, 0x00, 0x04, 0x00, 0x00, 0x00, 0x78, 0xfe, 0xff, 0xff,
  0x3e, 0x00, 0x00, 0x00, 0x73, 0x65, 0x71, 0x75, 0x65, 0x6e, 0x74, 0x69,
  0x61, 0x6c, 0x2f, 0x63, 0x6f, 0x6e, 0x76, 0x32, 0x64, 0x2f, 0x42, 0x69,
  0x61, 0x73, 0x41, 0x64, 0x64, 0x3b, 0x73, 0x65, 0x71, 0x75, 0x65, 0x6e,
  0x74, 0x69, 0x61, 0x6c, 0x2f, 0x63, 0x6f, 0x6e, 0x76, 0x32, 0x64, 0x2f,
  0x43, 0x6f, 0x6e, 0x76, 0x32, 0x44, 0x3b, 0x63, 0x6f, 0x6e, 0x76, 0x32,
  0x64, 0x2f, 0x62, 0x69, 0x61, 0x73, 0x00, 0x00, 0x01, 0x00, 0x00, 0x00,
  0x03, 0x00, 0x00, 0x00, 0xea, 0xfe, 0xff, 0xff, 0x34, 0x00, 0x00, 0x00,
  0x05, 0x00, 0x00, 0x00, 0x0c, 0x00, 0x00, 0x00, 0x04, 0x00, 0x00, 0x00,
  0xdc, 0xfe, 0xff, 0xff, 0x18, 0x00, 0x00, 0x00, 0x73, 0x65, 0x71, 0x75,
  0x65, 0x6e, 0x74, 0x69, 0x61, 0x6c, 0x2f, 0x63, 0x6f, 0x6e, 0x76, 0x32,
  0x64, 0x2f, 0x43, 0x6f, 0x6e, 0x76, 0x32, 0x44, 0x00, 0x00, 0x00, 0x00,
  0x04, 0x00, 0x00, 0x00, 0x03, 0x00, 0x00, 0x00, 0x03, 0x00, 0x00, 0x00,
  0x19, 0x00, 0x00, 0x00, 0x02, 0x00, 0x00, 0x00, 0x36, 0xff, 0xff, 0xff,
  0x34, 0x00, 0x00, 0x00, 0x04, 0x00, 0x00, 0x00, 0x0c, 0x00, 0x00, 0x00,
  0x04, 0x00, 0x00, 0x00, 0x28, 0xff, 0xff, 0xff, 0x18, 0x00, 0x00, 0x00,
  0x73, 0x65, 0x71, 0x75, 0x65, 0x6e, 0x74, 0x69, 0x61, 0x6c, 0x2f, 0x6f,
  0x75, 0x74, 0x70, 0x75, 0x74, 0x2f, 0x4d, 0x61, 0x74, 0x4d, 0x75, 0x6c,
  0x00, 0x00, 0x00, 0x00, 0x02, 0x00, 0x00, 0x00, 0x03, 0x00, 0x00, 0x00,
  0x4b, 0x00, 0x00, 0x00, 0x00, 0x00, 0x0e, 0x00, 0x18, 0x00, 0x08, 0x00,
  0x07, 0x00, 0x0c, 0x00, 0x10, 0x00, 0x14, 0x00, 0x0e, 0x00, 0x00, 0x00,
  0x00, 0x00, 0x00, 0x02, 0x34, 0x00, 0x00, 0x00, 0x03, 0x00, 0x00, 0x00,
  0x0c, 0x00, 0x00, 0x00, 0x04, 0x00, 0x00, 0x00, 0x80, 0xff, 0xff, 0xff,
  0x18, 0x00, 0x00, 0x00, 0x73, 0x65, 0x71, 0x75, 0x65, 0x6e, 0x74, 0x69,
  0x61, 0x6c, 0x2f, 0x66, 0x6c, 0x61, 0x74, 0x74, 0x65, 0x6e, 0x2f, 0x43,
  0x6f, 0x6e, 0x73, 0x74, 0x00, 0x00, 0x00, 0x00, 0x01, 0x00, 0x00, 0x00,
  0x02, 0x00, 0x00, 0x00, 0xce, 0xff, 0xff, 0xff, 0x24, 0x00, 0x00, 0x00,
  0x02, 0x00, 0x00, 0x00, 0x0c, 0x00, 0x00, 0x00, 0x04, 0x00, 0x00, 0x00,
  0xc0, 0xff, 0xff, 0xff, 0x0b, 0x00, 0x00, 0x00, 0x6f, 0x75, 0x74, 0x70,
  0x75, 0x74, 0x2f, 0x62, 0x69, 0x61, 0x73, 0x00, 0x01, 0x00, 0x00, 0x00,
  0x03, 0x00, 0x00, 0x00, 0x00, 0x00, 0x0e, 0x00, 0x14, 0x00, 0x04, 0x00,
  0x00, 0x00, 0x08, 0x00, 0x0c, 0x00, 0x10, 0x00, 0x0e, 0x00, 0x00, 0x00,
  0x30, 0x00, 0x00, 0x00, 0x01, 0x00, 0x00, 0x00, 0x10, 0x00, 0x00, 0x00,
  0x08, 0x00, 0x00, 0x00, 0x04, 0x00, 0x04, 0x00, 0x04, 0x00, 0x00, 0x00,
  0x13, 0x00, 0x00, 0x00, 0x73, 0x65, 0x72, 0x76, 0x69, 0x6e, 0x67, 0x5f,
  0x64, 0x65, 0x66, 0x61, 0x75, 0x6c, 0x74, 0x5f, 0x78, 0x3a, 0x30, 0x00,
  0x04, 0x00, 0x00, 0x00, 0x01, 0x00, 0x00, 0x00, 0x03, 0x00, 0x00, 0x00,
  0x19, 0x00, 0x00, 0x00, 0x02, 0x00, 0x00, 0x00, 0x05, 0x00, 0x00, 0x00,
  0x60, 0x00, 0x00, 0x00, 0x44, 0x00, 0x00, 0x00, 0x28, 0x00, 0x00, 0x00,
  0x14, 0x00, 0x00, 0x00, 0x04, 0x00, 0x00, 0x00, 0xd8, 0xff, 0xff, 0xff,
  0x00, 0x00, 0x00, 0x19, 0x19, 0x00, 0x00, 0x00, 0xcc, 0xff, 0xff, 0xff,
  0x00, 0x00, 0x00, 0x09, 0x09, 0x00, 0x00, 0x00, 0x09, 0x00, 0x00, 0x00,
  0xf4, 0xff, 0xff, 0xff, 0x00, 0x00, 0x00, 0x16, 0x16, 0x00, 0x00, 0x00,
  0x0c, 0x00, 0x0c, 0x00, 0x07, 0x00, 0x00, 0x00, 0x00, 0x00, 0x08, 0x00,
  0x0c, 0x00, 0x00, 0x00, 0x00, 0x00, 0x00, 0x11, 0x11, 0x00, 0x00, 0x00,
  0x0c, 0x00, 0x10, 0x00, 0x07, 0x00, 0x00, 0x00, 0x08, 0x00, 0x0c, 0x00,
  0x0c, 0x00, 0x00, 0x00, 0x00, 0x00, 0x00, 0x03, 0x05, 0x00, 0x00, 0x00,
  0x03, 0x00, 0x00, 0x00
};
unsigned int __ml_dataset_model_tflite_len = 4768;
